{
  "version": "1.0",
  "truncation": null,
  "padding": null,
  "added_tokens": [
    {
      "id": 0,
      "content": "<|begin_of_text|>",
      "single_word": false,
      "lstrip": false,
      "rstrip": false,
      "normalized": false,
      "special": true
    },
    {
      "id": 1,
      "content": "<|end_of_text|>",
      "single_word": false,
      "lstrip": false,
      "rstrip": false,
      "normalized": false,
      "special": true
    },
    {
      "id": 2,
      "content": "<|reserved_special_token_0|>",
      "single_word": false,
      "lstrip": false,
      "rstrip": false,
      "normalized": false,
      "special": true
    },
    {
      "id": 3,
      "content": "<|reserved_special_token_1|>",
      "single_word": false,
      "lstrip": false,
      "rstrip": false,
      "normalized": false,
      "special": true
    },
    {
      "id": 4,
      "content": "<|finetune_right_pad_id|>",
      "single_word": false,
      "lstrip": false,
      "rstrip": false,
      "normalized": false,
      "special": true
    },
    {
      "id": 5,
      "content": "<|reserved_special_token_2|>",
      "single_word": false,
      "lstrip": false,
      "rstrip": false,
      "normalized": false,
      "special": true
    },
    {
      "id": 6,
      "content": "<|start_header_id|>",
      "single_word": false,
      "lstrip": false,
      "rstrip": false,
      "normalized": false,
      "special": true
    },
    {
      "id": 7,
      "content": "<|end_header_id|>",
      "single_word": false,
      "lstrip": false,
      "rstrip": false,
      "normalized": false,
      "special": true
    },
    {
      "id": 8,
      "content": "<|eom_id|>",
      "single_word": false,
      "lstrip": false,
      "rstrip": false,
      "normalized": false,
      "special": true
    },
    {
      "id": 9,
      "content": "<|eot_id|>",
      "single_word": false,
      "lstrip": false,
      "rstrip": false,
      "normalized": false,
      "special": true
    },
    {
      "id": 10,
      "content": "<|python_tag|>",
      "single_word": false,
      "lstrip": false,
      "rstrip": false,
      "normalized": false,
      "special": true
    },
    {
      "id": 11,
      "content": "<|reserved_special_token_3|>",
      "single_word": false,
      "lstrip": false,
      "rstrip": false,
      "normalized": false,
      "special": true
    },
    {
      "id": 12,
      "content": "<|reserved_special_token_4|>",
      "single_word": false,
      "lstrip": false,
      "rstrip": false,
      "normalized": false,
      "special": true
    },
    {
      "id": 13,
      "content": "<|reserved_special_token_5|>",
      "single_word": false,
      "lstrip": false,
      "rstrip": false,
      "normalized": false,
      "special": true
    },
    {
      "id": 14,
      "content": "<|reserved_special_token_6|>",
      "single_word": false,
      "lstrip": false,
      "rstrip": false,
      "normalized": false,
      "special": true
    },
    {
      "id": 15,
      "content": "<|reserved_special_token_7|>",
      "single_word": false,
      "lstrip": false,
      "rstrip": false,
      "normalized": false,
      "special": true
    },
    {
      "id": 16,
      "content": "<|reserved_special_token_8|>",
      "single_word": false,
      "lstrip": false,
      "rstrip": false,
      "normalized": false,
      "special": true
    },
    {
      "id": 17,
      "content": "<|reserved_special_token_9|>",
      "single_word": false,
      "lstrip": false,
      "rstrip": false,
      "normalized": false,
      "special": true
    },
    {
      "id": 18,
      "content": "<|reserved_special_token_10|>",
      "single_word": false,
      "lstrip": false,
      "rstrip": false,
      "normalized": false,
      "special": true
    },
    {
      "id": 19,
      "content": "<|reserved_special_token_11|>",
      "single_word": false,
      "lstrip": false,
      "rstrip": false,
      "normalized": false,
      "special": true
    },
    {
      "id": 20,
      "content": "<|reserved_special_token_12|>",
      "single_word": false,
      "lstrip": false,
      "rstrip": false,
      "normalized": false,
      "special": true
    },
    {
      "id": 21,
      "content": "<|reserved_special_token_13|>",
      "single_word": false,
      "lstrip": false,
      "rstrip": false,
      "normalized": false,
      "special": true
    },
    {
      "id": 22,
      "content": "<|reserved_special_token_14|>",
      "single_word": false,
      "lstrip": false,
      "rstrip": false,
      "normalized": false,
      "special": true
    },
    {
      "id": 23,
      "content": "<|reserved_special_token_15|>",
      "single_word": false,
      "lstrip": false,
      "rstrip": false,
      "normalized": false,
      "special": true
    },
    {
      "id": 24,
      "content": "<|reserved_special_token_16|>",
      "single_word": false,
      "lstrip": false,
      "rstrip": false,
      "normalized": false,
      "special": true
    },
    {
      "id": 25,
      "content": "<|reserved_special_token_17|>",
      "single_word": false,
      "lstrip": false,
      "rstrip": false,
      "normalized": false,
      "special": true
    },
    {
      "id": 26,
      "content": "<|reserved_special_token_18|>",
      "single_word": false,
      "lstrip": false,
      "rstrip": false,
      "normalized": false,
      "special": true
    },
    {
      "id": 27,
      "content": "<|reserved_special_token_19|>",
      "single_word": false,
      "lstrip": false,
      "rstrip": false,
      "normalized": false,
      "special": true
    },
    {
      "id": 28,
      "content": "<|reserved_special_token_20|>",
      "single_word": false,
      "lstrip": false,
      "rstrip": false,
      "normalized": false,
      "special": true
    },
    {
      "id": 29,
      "content": "<|reserved_special_token_21|>",
      "single_word": false,
      "lstrip": false,
      "rstrip": false,
      "normalized": false,
      "special": true
    },
    {
      "id": 30,
      "content": "<|reserved_special_token_22|>",
      "single_word": false,
      "lstrip": false,
      "rstrip": false,
      "normalized": false,
      "special": true
    },
    {
      "id": 31,
      "content": "<|reserved_special_token_23|>",
      "single_word": false,
      "lstrip": false,
      "rstrip": false,
      "normalized": false,
      "special": true
    },
    {
      "id": 32,
      "content": "<|reserved_special_token_24|>",
      "single_word": false,
      "lstrip": false,
      "rstrip": false,
      "normalized": false,
      "special": true
    },
    {
      "id": 33,
      "content": "<|reserved_special_token_25|>",
      "single_word": false,
      "lstrip": false,
      "rstrip": false,
      "normalized": false,
      "special": true
    },
    {
      "id": 34,
      "content": "<|reserved_special_token_26|>",
      "single_word": false,
      "lstrip": false,
      "rstrip": false,
      "normalized": false,
      "special": true
    },
    {
      "id": 35,
      "content": "<|reserved_special_token_27|>",
      "single_word": false,
      "lstrip": false,
      "rstrip": false,
      "normalized": false,
      "special": true
    },
    {
      "id": 36,
      "content": "<|reserved_special_token_28|>",
      "single_word": false,
      "lstrip": false,
      "rstrip": false,
      "normalized": false,
      "special": true
    },
    {
      "id": 37,
      "content": "<|reserved_special_token_29|>",
      "single_word": false,
      "lstrip": false,
      "rstrip": false,
      "normalized": false,
      "special": true
    },
    {
      "id": 38,
      "content": "<|reserved_special_token_30|>",
      "single_word": false,
      "lstrip": false,
      "rstrip": false,
      "normalized": false,
      "special": true
    },
    {
      "id": 39,
      "content": "<|reserved_special_token_31|>",
      "single_word": false,
      "lstrip": false,
      "rstrip": false,
      "normalized": false,
      "special": true
    },
    {
      "id": 40,
      "content": "<|reserved_special_token_32|>",
      "single_word": false,
      "lstrip": false,
      "rstrip": false,
      "normalized": false,
      "special": true
    },
    {
      "id": 41,
      "content": "<|reserved_special_token_33|>",
      "single_word": false,
      "lstrip": false,
      "rstrip": false,
      "normalized": false,
      "special": true
    },
    {
      "id": 42,
      "content": "<|reserved_special_token_34|>",
      "single_word": false,
      "lstrip": false,
      "rstrip": false,
      "normalized": false,
      "special": true
    },
    {
      "id": 43,
      "content": "<|reserved_special_token_35|>",
      "single_word": false,
      "lstrip": false,
      "rstrip": false,
      "normalized": false,
      "special": true
    },
    {
      "id": 44,
      "content": "<|reserved_special_token_36|>",
      "single_word": false,
      "lstrip": false,
      "rstrip": false,
      "normalized": false,
      "special": true
    },
    {
      "id": 45,
      "content": "<|reserved_special_token_37|>",
      "single_word": false,
      "lstrip": false,
      "rstrip": false,
      "normalized": false,
      "special": true
    },
    {
      "id": 46,
      "content": "<|reserved_special_token_38|>",
      "single_word": false,
      "lstrip": false,
      "rstrip": false,
      "normalized": false,
      "special": true
    },
    {
      "id": 47,
      "content": "<|reserved_special_token_39|>",
      "single_word": false,
      "lstrip": false,
      "rstrip": false,
      "normalized": false,
      "special": true
    },
    {
      "id": 48,
      "content": "<|reserved_special_token_40|>",
      "single_word": false,
      "lstrip": false,
      "rstrip": false,
      "normalized": false,
      "special": true
    },
    {
      "id": 49,
      "content": "<|reserved_special_token_41|>",
      "single_word": false,
      "lstrip": false,
      "rstrip": false,
      "normalized": false,
      "special": true
    },
    {
      "id": 50,
      "content": "<|reserved_special_token_42|>",
      "single_word": false,
      "lstrip": false,
      "rstrip": false,
      "normalized": false,
      "special": true
    },
    {
      "id": 51,
      "content": "<|reserved_special_token_43|>",
      "single_word": false,
      "lstrip": false,
      "rstrip": false,
      "normalized": false,
      "special": true
    },
    {
      "id": 52,
      "content": "<|reserved_special_token_44|>",
      "single_word": false,
      "lstrip": false,
      "rstrip": false,
      "normalized": false,
      "special": true
    },
    {
      "id": 53,
      "content": "<|reserved_special_token_45|>",
      "single_word": false,
      "lstrip": false,
      "rstrip": false,
      "normalized": false,
      "special": true
    },
    {
      "id": 54,
      "content": "<|reserved_special_token_46|>",
      "single_word": false,
      "lstrip": false,
      "rstrip": false,
      "normalized": false,
      "special": true
    },
    {
      "id": 55,
      "content": "<|reserved_special_token_47|>",
      "single_word": false,
      "lstrip": false,
      "rstrip": false,
      "normalized": false,
      "special": true
    },
    {
      "id": 56,
      "content": "<|reserved_special_token_48|>",
      "single_word": false,
      "lstrip": false,
      "rstrip": false,
      "normalized": false,
      "special": true
    },
    {
      "id": 57,
      "content": "<|reserved_special_token_49|>",
      "single_word": false,
      "lstrip": false,
      "rstrip": false,
      "normalized": false,
      "special": true
    },
    {
      "id": 58,
      "content": "<|reserved_special_token_50|>",
      "single_word": false,
      "lstrip": false,
      "rstrip": false,
      "normalized": false,
      "special": true
    },
    {
      "id": 59,
      "content": "<|reserved_special_token_51|>",
      "single_word": false,
      "lstrip": false,
      "rstrip": false,
      "normalized": false,
      "special": true
    },
    {
      "id": 60,
      "content": "<|reserved_special_token_52|>",
      "single_word": false,
      "lstrip": false,
      "rstrip": false,
      "normalized": false,
      "special": true
    },
    {
      "id": 61,
      "content": "<|reserved_special_token_53|>",
      "single_word": false,
      "lstrip": false,
      "rstrip": false,
      "normalized": false,
      "special": true
    },
    {
      "id": 62,
      "content": "<|reserved_special_token_54|>",
      "single_word": false,
      "lstrip": false,
      "rstrip": false,
      "normalized": false,
      "special": true
    },
    {
      "id": 63,
      "content": "<|reserved_special_token_55|>",
      "single_word": false,
      "lstrip": false,
      "rstrip": false,
      "normalized": false,
      "special": true
    },
    {
      "id": 64,
      "content": "<|reserved_special_token_56|>",
      "single_word": false,
      "lstrip": false,
      "rstrip": false,
      "normalized": false,
      "special": true
    },
    {
      "id": 65,
      "content": "<|reserved_special_token_57|>",
      "single_word": false,
      "lstrip": false,
      "rstrip": false,
      "normalized": false,
      "special": true
    },
    {
      "id": 66,
      "content": "<|reserved_special_token_58|>",
      "single_word": false,
      "lstrip": false,
      "rstrip": false,
      "normalized": false,
      "special": true
    },
    {
      "id": 67,
      "content": "<|reserved_special_token_59|>",
      "single_word": false,
      "lstrip": false,
      "rstrip": false,
      "normalized": false,
      "special": true
    },
    {
      "id": 68,
      "content": "<|reserved_special_token_60|>",
      "single_word": false,
      "lstrip": false,
      "rstrip": false,
      "normalized": false,
      "special": true
    },
    {
      "id": 69,
      "content": "<|reserved_special_token_61|>",
      "single_word": false,
      "lstrip": false,
      "rstrip": false,
      "normalized": false,
      "special": true
    },
    {
      "id": 70,
      "content": "<|reserved_special_token_62|>",
      "single_word": false,
      "lstrip": false,
      "rstrip": false,
      "normalized": false,
      "special": true
    },
    {
      "id": 71,
      "content": "<|reserved_special_token_63|>",
      "single_word": false,
      "lstrip": false,
      "rstrip": false,
      "normalized": false,
      "special": true
    },
    {
      "id": 72,
      "content": "<|reserved_special_token_64|>",
      "single_word": false,
      "lstrip": false,
      "rstrip": false,
      "normalized": false,
      "special": true
    },
    {
      "id": 73,
      "content": "<|reserved_special_token_65|>",
      "single_word": false,
      "lstrip": false,
      "rstrip": false,
      "normalized": false,
      "special": true
    },
    {
      "id": 74,
      "content": "<|reserved_special_token_66|>",
      "single_word": false,
      "lstrip": false,
      "rstrip": false,
      "normalized": false,
      "special": true
    },
    {
      "id": 75,
      "content": "<|reserved_special_token_67|>",
      "single_word": false,
      "lstrip": false,
      "rstrip": false,
      "normalized": false,
      "special": true
    },
    {
      "id": 76,
      "content": "<|reserved_special_token_68|>",
      "single_word": false,
      "lstrip": false,
      "rstrip": false,
      "normalized": false,
      "special": true
    },
    {
      "id": 77,
      "content": "<|reserved_special_token_69|>",
      "single_word": false,
      "lstrip": false,
      "rstrip": false,
      "normalized": false,
      "special": true
    },
    {
      "id": 78,
      "content": "<|reserved_special_token_70|>",
      "single_word": false,
      "lstrip": false,
      "rstrip": false,
      "normalized": false,
      "special": true
    },
    {
      "id": 79,
      "content": "<|reserved_special_token_71|>",
      "single_word": false,
      "lstrip": false,
      "rstrip": false,
      "normalized": false,
      "special": true
    },
    {
      "id": 80,
      "content": "<|reserved_special_token_72|>",
      "single_word": false,
      "lstrip": false,
      "rstrip": false,
      "normalized": false,
      "special": true
    },
    {
      "id": 81,
      "content": "<|reserved_special_token_73|>",
      "single_word": false,
      "lstrip": false,
      "rstrip": false,
      "normalized": false,
      "special": true
    },
    {
      "id": 82,
      "content": "<|reserved_special_token_74|>",
      "single_word": false,
      "lstrip": false,
      "rstrip": false,
      "normalized": false,
      "special": true
    },
    {
      "id": 83,
      "content": "<|reserved_special_token_75|>",
      "single_word": false,
      "lstrip": false,
      "rstrip": false,
      "normalized": false,
      "special": true
    },
    {
      "id": 84,
      "content": "<|reserved_special_token_76|>",
      "single_word": false,
      "lstrip": false,
      "rstrip": false,
      "normalized": false,
      "special": true
    },
    {
      "id": 85,
      "content": "<|reserved_special_token_77|>",
      "single_word": false,
      "lstrip": false,
      "rstrip": false,
      "normalized": false,
      "special": true
    },
    {
      "id": 86,
      "content": "<|reserved_special_token_78|>",
      "single_word": false,
      "lstrip": false,
      "rstrip": false,
      "normalized": false,
      "special": true
    },
    {
      "id": 87,
      "content": "<|reserved_special_token_79|>",
      "single_word": false,
      "lstrip": false,
      "rstrip": false,
      "normalized": false,
      "special": true
    },
    {
      "id": 88,
      "content": "<|reserved_special_token_80|>",
      "single_word": false,
      "lstrip": false,
      "rstrip": false,
      "normalized": false,
      "special": true
    },
    {
      "id": 89,
      "content": "<|reserved_special_token_81|>",
      "single_word": false,
      "lstrip": false,
      "rstrip": false,
      "normalized": false,
      "special": true
    },
    {
      "id": 90,
      "content": "<|reserved_special_token_82|>",
      "single_word": false,
      "lstrip": false,
      "rstrip": false,
      "normalized": false,
      "special": true
    },
    {
      "id": 91,
      "content": "<|reserved_special_token_83|>",
      "single_word": false,
      "lstrip": false,
      "rstrip": false,
      "normalized": false,
      "special": true
    },
    {
      "id": 92,
      "content": "<|reserved_special_token_84|>",
      "single_word": false,
      "lstrip": false,
      "rstrip": false,
      "normalized": false,
      "special": true
    },
    {
      "id": 93,
      "content": "<|reserved_special_token_85|>",
      "single_word": false,
      "lstrip": false,
      "rstrip": false,
      "normalized": false,
      "special": true
    },
    {
      "id": 94,
      "content": "<|reserved_special_token_86|>",
      "single_word": false,
      "lstrip": false,
      "rstrip": false,
      "normalized": false,
      "special": true
    },
    {
      "id": 95,
      "content": "<|reserved_special_token_87|>",
      "single_word": false,
      "lstrip": false,
      "rstrip": false,
      "normalized": false,
      "special": true
    },
    {
      "id": 96,
      "content": "<|reserved_special_token_88|>",
      "single_word": false,
      "lstrip": false,
      "rstrip": false,
      "normalized": false,
      "special": true
    },
    {
      "id": 97,
      "content": "<|reserved_special_token_89|>",
      "single_word": false,
      "lstrip": false,
      "rstrip": false,
      "normalized": false,
      "special": true
    },
    {
      "id": 98,
      "content": "<|reserved_special_token_90|>",
      "single_word": false,
      "lstrip": false,
      "rstrip": false,
      "normalized": false,
      "special": true
    },
    {
      "id": 99,
      "content": "<|reserved_special_token_91|>",
      "single_word": false,
      "lstrip": false,
      "rstrip": false,
      "normalized": false,
      "special": true
    },
    {
      "id": 100,
      "content": "<|reserved_special_token_92|>",
      "single_word": false,
      "lstrip": false,
      "rstrip": false,
      "normalized": false,
      "special": true
    },
    {
      "id": 101,
      "content": "<|reserved_special_token_93|>",
      "single_word": false,
      "lstrip": false,
      "rstrip": false,
      "normalized": false,
      "special": true
    },
    {
      "id": 102,
      "content": "<|reserved_special_token_94|>",
      "single_word": false,
      "lstrip": false,
      "rstrip": false,
      "normalized": false,
      "special": true
    },
    {
      "id": 103,
      "content": "<|reserved_special_token_95|>",
      "single_word": false,
      "lstrip": false,
      "rstrip": false,
      "normalized": false,
      "special": true
    },
    {
      "id": 104,
      "content": "<|reserved_special_token_96|>",
      "single_word": false,
      "lstrip": false,
      "rstrip": false,
      "normalized": false,
      "special": true
    },
    {
      "id": 105,
      "content": "<|reserved_special_token_97|>",
      "single_word": false,
      "lstrip": false,
      "rstrip": false,
      "normalized": false,
      "special": true
    },
    {
      "id": 106,
      "content": "<|reserved_special_token_98|>",
      "single_word": false,
      "lstrip": false,
      "rstrip": false,
      "normalized": false,
      "special": true
    },
    {
      "id": 107,
      "content": "<|reserved_special_token_99|>",
      "single_word": false,
      "lstrip": false,
      "rstrip": false,
      "normalized": false,
      "special": true
    },
    {
      "id": 108,
      "content": "<|reserved_special_token_100|>",
      "single_word": false,
      "lstrip": false,
      "rstrip": false,
      "normalized": false,
      "special": true
    },
    {
      "id": 109,
      "content": "<|reserved_special_token_101|>",
      "single_word": false,
      "lstrip": false,
      "rstrip": false,
      "normalized": false,
      "special": true
    },
    {
      "id": 110,
      "content": "<|reserved_special_token_102|>",
      "single_word": false,
      "lstrip": false,
      "rstrip": false,
      "normalized": false,
      "special": true
    },
    {
      "id": 111,
      "content": "<|reserved_special_token_103|>",
      "single_word": false,
      "lstrip": false,
      "rstrip": false,
      "normalized": false,
      "special": true
    },
    {
      "id": 112,
      "content": "<|reserved_special_token_104|>",
      "single_word": false,
      "lstrip": false,
      "rstrip": false,
      "normalized": false,
      "special": true
    },
    {
      "id": 113,
      "content": "<|reserved_special_token_105|>",
      "single_word": false,
      "lstrip": false,
      "rstrip": false,
      "normalized": false,
      "special": true
    },
    {
      "id": 114,
      "content": "<|reserved_special_token_106|>",
      "single_word": false,
      "lstrip": false,
      "rstrip": false,
      "normalized": false,
      "special": true
    },
    {
      "id": 115,
      "content": "<|reserved_special_token_107|>",
      "single_word": false,
      "lstrip": false,
      "rstrip": false,
      "normalized": false,
      "special": true
    },
    {
      "id": 116,
      "content": "<|reserved_special_token_108|>",
      "single_word": false,
      "lstrip": false,
      "rstrip": false,
      "normalized": false,
      "special": true
    },
    {
      "id": 117,
      "content": "<|reserved_special_token_109|>",
      "single_word": false,
      "lstrip": false,
      "rstrip": false,
      "normalized": false,
      "special": true
    },
    {
      "id": 118,
      "content": "<|reserved_special_token_110|>",
      "single_word": false,
      "lstrip": false,
      "rstrip": false,
      "normalized": false,
      "special": true
    },
    {
      "id": 119,
      "content": "<|reserved_special_token_111|>",
      "single_word": false,
      "lstrip": false,
      "rstrip": false,
      "normalized": false,
      "special": true
    },
    {
      "id": 120,
      "content": "<|reserved_special_token_112|>",
      "single_word": false,
      "lstrip": false,
      "rstrip": false,
      "normalized": false,
      "special": true
    },
    {
      "id": 121,
      "content": "<|reserved_special_token_113|>",
      "single_word": false,
      "lstrip": false,
      "rstrip": false,
      "normalized": false,
      "special": true
    },
    {
      "id": 122,
      "content": "<|reserved_special_token_114|>",
      "single_word": false,
      "lstrip": false,
      "rstrip": false,
      "normalized": false,
      "special": true
    },
    {
      "id": 123,
      "content": "<|reserved_special_token_115|>",
      "single_word": false,
      "lstrip": false,
      "rstrip": false,
      "normalized": false,
      "special": true
    },
    {
      "id": 124,
      "content": "<|reserved_special_token_116|>",
      "single_word": false,
      "lstrip": false,
      "rstrip": false,
      "normalized": false,
      "special": true
    },
    {
      "id": 125,
      "content": "<|reserved_special_token_117|>",
      "single_word": false,
      "lstrip": false,
      "rstrip": false,
      "normalized": false,
      "special": true
    },
    {
      "id": 126,
      "content": "<|reserved_special_token_118|>",
      "single_word": false,
      "lstrip": false,
      "rstrip": false,
      "normalized": false,
      "special": true
    },
    {
      "id": 127,
      "content": "<|reserved_special_token_119|>",
      "single_word": false,
      "lstrip": false,
      "rstrip": false,
      "normalized": false,
      "special": true
    },
    {
      "id": 128,
      "content": "<|reserved_special_token_120|>",
      "single_word": false,
      "lstrip": false,
      "rstrip": false,
      "normalized": false,
      "special": true
    },
    {
      "id": 129,
      "content": "<|reserved_special_token_121|>",
      "single_word": false,
      "lstrip": false,
      "rstrip": false,
      "normalized": false,
      "special": true
    },
    {
      "id": 130,
      "content": "<|reserved_special_token_122|>",
      "single_word": false,
      "lstrip": false,
      "rstrip": false,
      "normalized": false,
      "special": true
    },
    {
      "id": 131,
      "content": "<|reserved_special_token_123|>",
      "single_word": false,
      "lstrip": false,
      "rstrip": false,
      "normalized": false,
      "special": true
    },
    {
      "id": 132,
      "content": "<|reserved_special_token_124|>",
      "single_word": false,
      "lstrip": false,
      "rstrip": false,
      "normalized": false,
      "special": true
    },
    {
      "id": 133,
      "content": "<|reserved_special_token_125|>",
      "single_word": false,
      "lstrip": false,
      "rstrip": false,
      "normalized": false,
      "special": true
    },
    {
      "id": 134,
      "content": "<|reserved_special_token_126|>",
      "single_word": false,
      "lstrip": false,
      "rstrip": false,
      "normalized": false,
      "special": true
    },
    {
      "id": 135,
      "content": "<|reserved_special_token_127|>",
      "single_word": false,
      "lstrip": false,
      "rstrip": false,
      "normalized": false,
      "special": true
    },
    {
      "id": 136,
      "content": "<|reserved_special_token_128|>",
      "single_word": false,
      "lstrip": false,
      "rstrip": false,
      "normalized": false,
      "special": true
    },
    {
      "id": 137,
      "content": "<|reserved_special_token_129|>",
      "single_word": false,
      "lstrip": false,
      "rstrip": false,
      "normalized": false,
      "special": true
    },
    {
      "id": 138,
      "content": "<|reserved_special_token_130|>",
      "single_word": false,
      "lstrip": false,
      "rstrip": false,
      "normalized": false,
      "special": true
    },
    {
      "id": 139,
      "content": "<|reserved_special_token_131|>",
      "single_word": false,
      "lstrip": false,
      "rstrip": false,
      "normalized": false,
      "special": true
    },
    {
      "id": 140,
      "content": "<|reserved_special_token_132|>",
      "single_word": false,
      "lstrip": false,
      "rstrip": false,
      "normalized": false,
      "special": true
    },
    {
      "id": 141,
      "content": "<|reserved_special_token_133|>",
      "single_word": false,
      "lstrip": false,
      "rstrip": false,
      "normalized": false,
      "special": true
    },
    {
      "id": 142,
      "content": "<|reserved_special_token_134|>",
      "single_word": false,
      "lstrip": false,
      "rstrip": false,
      "normalized": false,
      "special": true
    },
    {
      "id": 143,
      "content": "<|reserved_special_token_135|>",
      "single_word": false,
      "lstrip": false,
      "rstrip": false,
      "normalized": false,
      "special": true
    },
    {
      "id": 144,
      "content": "<|reserved_special_token_136|>",
      "single_word": false,
      "lstrip": false,
      "rstrip": false,
      "normalized": false,
      "special": true
    },
    {
      "id": 145,
      "content": "<|reserved_special_token_137|>",
      "single_word": false,
      "lstrip": false,
      "rstrip": false,
      "normalized": false,
      "special": true
    },
    {
      "id": 146,
      "content": "<|reserved_special_token_138|>",
      "single_word": false,
      "lstrip": false,
      "rstrip": false,
      "normalized": false,
      "special": true
    },
    {
      "id": 147,
      "content": "<|reserved_special_token_139|>",
      "single_word": false,
      "lstrip": false,
      "rstrip": false,
      "normalized": false,
      "special": true
    },
    {
      "id": 148,
      "content": "<|reserved_special_token_140|>",
      "single_word": false,
      "lstrip": false,
      "rstrip": false,
      "normalized": false,
      "special": true
    },
    {
      "id": 149,
      "content": "<|reserved_special_token_141|>",
      "single_word": false,
      "lstrip": false,
      "rstrip": false,
      "normalized": false,
      "special": true
    },
    {
      "id": 150,
      "content": "<|reserved_special_token_142|>",
      "single_word": false,
      "lstrip": false,
      "rstrip": false,
      "normalized": false,
      "special": true
    },
    {
      "id": 151,
      "content": "<|reserved_special_token_143|>",
      "single_word": false,
      "lstrip": false,
      "rstrip": false,
      "normalized": false,
      "special": true
    },
    {
      "id": 152,
      "content": "<|reserved_special_token_144|>",
      "single_word": false,
      "lstrip": false,
      "rstrip": false,
      "normalized": false,
      "special": true
    },
    {
      "id": 153,
      "content": "<|reserved_special_token_145|>",
      "single_word": false,
      "lstrip": false,
      "rstrip": false,
      "normalized": false,
      "special": true
    },
    {
      "id": 154,
      "content": "<|reserved_special_token_146|>",
      "single_word": false,
      "lstrip": false,
      "rstrip": false,
      "normalized": false,
      "special": true
    },
    {
      "id": 155,
      "content": "<|reserved_special_token_147|>",
      "single_word": false,
      "lstrip": false,
      "rstrip": false,
      "normalized": false,
      "special": true
    },
    {
      "id": 156,
      "content": "<|reserved_special_token_148|>",
      "single_word": false,
      "lstrip": false,
      "rstrip": false,
      "normalized": false,
      "special": true
    },
    {
      "id": 157,
      "content": "<|reserved_special_token_149|>",
      "single_word": false,
      "lstrip": false,
      "rstrip": false,
      "normalized": false,
      "special": true
    },
    {
      "id": 158,
      "content": "<|reserved_special_token_150|>",
      "single_word": false,
      "lstrip": false,
      "rstrip": false,
      "normalized": false,
      "special": true
    },
    {
      "id": 159,
      "content": "<|reserved_special_token_151|>",
      "single_word": false,
      "lstrip": false,
      "rstrip": false,
      "normalized": false,
      "special": true
    },
    {
      "id": 160,
      "content": "<|reserved_special_token_152|>",
      "single_word": false,
      "lstrip": false,
      "rstrip": false,
      "normalized": false,
      "special": true
    },
    {
      "id": 161,
      "content": "<|reserved_special_token_153|>",
      "single_word": false,
      "lstrip": false,
      "rstrip": false,
      "normalized": false,
      "special": true
    },
    {
      "id": 162,
      "content": "<|reserved_special_token_154|>",
      "single_word": false,
      "lstrip": false,
      "rstrip": false,
      "normalized": false,
      "special": true
    },
    {
      "id": 163,
      "content": "<|reserved_special_token_155|>",
      "single_word": false,
      "lstrip": false,
      "rstrip": false,
      "normalized": false,
      "special": true
    },
    {
      "id": 164,
      "content": "<|reserved_special_token_156|>",
      "single_word": false,
      "lstrip": false,
      "rstrip": false,
      "normalized": false,
      "special": true
    },
    {
      "id": 165,
      "content": "<|reserved_special_token_157|>",
      "single_word": false,
      "lstrip": false,
      "rstrip": false,
      "normalized": false,
      "special": true
    },
    {
      "id": 166,
      "content": "<|reserved_special_token_158|>",
      "single_word": false,
      "lstrip": false,
      "rstrip": false,
      "normalized": false,
      "special": true
    },
    {
      "id": 167,
      "content": "<|reserved_special_token_159|>",
      "single_word": false,
      "lstrip": false,
      "rstrip": false,
      "normalized": false,
      "special": true
    },
    {
      "id": 168,
      "content": "<|reserved_special_token_160|>",
      "single_word": false,
      "lstrip": false,
      "rstrip": false,
      "normalized": false,
      "special": true
    },
    {
      "id": 169,
      "content": "<|reserved_special_token_161|>",
      "single_word": false,
      "lstrip": false,
      "rstrip": false,
      "normalized": false,
      "special": true
    },
    {
      "id": 170,
      "content": "<|reserved_special_token_162|>",
      "single_word": false,
      "lstrip": false,
      "rstrip": false,
      "normalized": false,
      "special": true
    },
    {
      "id": 171,
      "content": "<|reserved_special_token_163|>",
      "single_word": false,
      "lstrip": false,
      "rstrip": false,
      "normalized": false,
      "special": true
    },
    {
      "id": 172,
      "content": "<|reserved_special_token_164|>",
      "single_word": false,
      "lstrip": false,
      "rstrip": false,
      "normalized": false,
      "special": true
    },
    {
      "id": 173,
      "content": "<|reserved_special_token_165|>",
      "single_word": false,
      "lstrip": false,
      "rstrip": false,
      "normalized": false,
      "special": true
    },
    {
      "id": 174,
      "content": "<|reserved_special_token_166|>",
      "single_word": false,
      "lstrip": false,
      "rstrip": false,
      "normalized": false,
      "special": true
    },
    {
      "id": 175,
      "content": "<|reserved_special_token_167|>",
      "single_word": false,
      "lstrip": false,
      "rstrip": false,
      "normalized": false,
      "special": true
    },
    {
      "id": 176,
      "content": "<|reserved_special_token_168|>",
      "single_word": false,
      "lstrip": false,
      "rstrip": false,
      "normalized": false,
      "special": true
    },
    {
      "id": 177,
      "content": "<|reserved_special_token_169|>",
      "single_word": false,
      "lstrip": false,
      "rstrip": false,
      "normalized": false,
      "special": true
    },
    {
      "id": 178,
      "content": "<|reserved_special_token_170|>",
      "single_word": false,
      "lstrip": false,
      "rstrip": false,
      "normalized": false,
      "special": true
    },
    {
      "id": 179,
      "content": "<|reserved_special_token_171|>",
      "single_word": false,
      "lstrip": false,
      "rstrip": false,
      "normalized": false,
      "special": true
    },
    {
      "id": 180,
      "content": "<|reserved_special_token_172|>",
      "single_word": false,
      "lstrip": false,
      "rstrip": false,
      "normalized": false,
      "special": true
    },
    {
      "id": 181,
      "content": "<|reserved_special_token_173|>",
      "single_word": false,
      "lstrip": false,
      "rstrip": false,
      "normalized": false,
      "special": true
    },
    {
      "id": 182,
      "content": "<|reserved_special_token_174|>",
      "single_word": false,
      "lstrip": false,
      "rstrip": false,
      "normalized": false,
      "special": true
    },
    {
      "id": 183,
      "content": "<|reserved_special_token_175|>",
      "single_word": false,
      "lstrip": false,
      "rstrip": false,
      "normalized": false,
      "special": true
    },
    {
      "id": 184,
      "content": "<|reserved_special_token_176|>",
      "single_word": false,
      "lstrip": false,
      "rstrip": false,
      "normalized": false,
      "special": true
    },
    {
      "id": 185,
      "content": "<|reserved_special_token_177|>",
      "single_word": false,
      "lstrip": false,
      "rstrip": false,
      "normalized": false,
      "special": true
    },
    {
      "id": 186,
      "content": "<|reserved_special_token_178|>",
      "single_word": false,
      "lstrip": false,
      "rstrip": false,
      "normalized": false,
      "special": true
    },
    {
      "id": 187,
      "content": "<|reserved_special_token_179|>",
      "single_word": false,
      "lstrip": false,
      "rstrip": false,
      "normalized": false,
      "special": true
    },
    {
      "id": 188,
      "content": "<|reserved_special_token_180|>",
      "single_word": false,
      "lstrip": false,
      "rstrip": false,
      "normalized": false,
      "special": true
    },
    {
      "id": 189,
      "content": "<|reserved_special_token_181|>",
      "single_word": false,
      "lstrip": false,
      "rstrip": false,
      "normalized": false,
      "special": true
    },
    {
      "id": 190,
      "content": "<|reserved_special_token_182|>",
      "single_word": false,
      "lstrip": false,
      "rstrip": false,
      "normalized": false,
      "special": true
    },
    {
      "id": 191,
      "content": "<|reserved_special_token_183|>",
      "single_word": false,
      "lstrip": false,
      "rstrip": false,
      "normalized": false,
      "special": true
    },
    {
      "id": 192,
      "content": "<|reserved_special_token_184|>",
      "single_word": false,
      "lstrip": false,
      "rstrip": false,
      "normalized": false,
      "special": true
    },
    {
      "id": 193,
      "content": "<|reserved_special_token_185|>",
      "single_word": false,
      "lstrip": false,
      "rstrip": false,
      "normalized": false,
      "special": true
    },
    {
      "id": 194,
      "content": "<|reserved_special_token_186|>",
      "single_word": false,
      "lstrip": false,
      "rstrip": false,
      "normalized": false,
      "special": true
    },
    {
      "id": 195,
      "content": "<|reserved_special_token_187|>",
      "single_word": false,
      "lstrip": false,
      "rstrip": false,
      "normalized": false,
      "special": true
    },
    {
      "id": 196,
      "content": "<|reserved_special_token_188|>",
      "single_word": false,
      "lstrip": false,
      "rstrip": false,
      "normalized": false,
      "special": true
    },
    {
      "id": 197,
      "content": "<|reserved_special_token_189|>",
      "single_word": false,
      "lstrip": false,
      "rstrip": false,
      "normalized": false,
      "special": true
    },
    {
      "id": 198,
      "content": "<|reserved_special_token_190|>",
      "single_word": false,
      "lstrip": false,
      "rstrip": false,
      "normalized": false,
      "special": true
    },
    {
      "id": 199,
      "content": "<|reserved_special_token_191|>",
      "single_word": false,
      "lstrip": false,
      "rstrip": false,
      "normalized": false,
      "special": true
    },
    {
      "id": 200,
      "content": "<|reserved_special_token_192|>",
      "single_word": false,
      "lstrip": false,
      "rstrip": false,
      "normalized": false,
      "special": true
    },
    {
      "id": 201,
      "content": "<|reserved_special_token_193|>",
      "single_word": false,
      "lstrip": false,
      "rstrip": false,
      "normalized": false,
      "special": true
    },
    {
      "id": 202,
      "content": "<|reserved_special_token_194|>",
      "single_word": false,
      "lstrip": false,
      "rstrip": false,
      "normalized": false,
      "special": true
    },
    {
      "id": 203,
      "content": "<|reserved_special_token_195|>",
      "single_word": false,
      "lstrip": false,
      "rstrip": false,
      "normalized": false,
      "special": true
    },
    {
      "id": 204,
      "content": "<|reserved_special_token_196|>",
      "single_word": false,
      "lstrip": false,
      "rstrip": false,
      "normalized": false,
      "special": true
    },
    {
      "id": 205,
      "content": "<|reserved_special_token_197|>",
      "single_word": false,
      "lstrip": false,
      "rstrip": false,
      "normalized": false,
      "special": true
    },
    {
      "id": 206,
      "content": "<|reserved_special_token_198|>",
      "single_word": false,
      "lstrip": false,
      "rstrip": false,
      "normalized": false,
      "special": true
    },
    {
      "id": 207,
      "content": "<|reserved_special_token_199|>",
      "single_word": false,
      "lstrip": false,
      "rstrip": false,
      "normalized": false,
      "special": true
    },
    {
      "id": 208,
      "content": "<|reserved_special_token_200|>",
      "single_word": false,
      "lstrip": false,
      "rstrip": false,
      "normalized": false,
      "special": true
    },
    {
      "id": 209,
      "content": "<|reserved_special_token_201|>",
      "single_word": false,
      "lstrip": false,
      "rstrip": false,
      "normalized": false,
      "special": true
    },
    {
      "id": 210,
      "content": "<|reserved_special_token_202|>",
      "single_word": false,
      "lstrip": false,
      "rstrip": false,
      "normalized": false,
      "special": true
    },
    {
      "id": 211,
      "content": "<|reserved_special_token_203|>",
      "single_word": false,
      "lstrip": false,
      "rstrip": false,
      "normalized": false,
      "special": true
    },
    {
      "id": 212,
      "content": "<|reserved_special_token_204|>",
      "single_word": false,
      "lstrip": false,
      "rstrip": false,
      "normalized": false,
      "special": true
    },
    {
      "id": 213,
      "content": "<|reserved_special_token_205|>",
      "single_word": false,
      "lstrip": false,
      "rstrip": false,
      "normalized": false,
      "special": true
    },
    {
      "id": 214,
      "content": "<|reserved_special_token_206|>",
      "single_word": false,
      "lstrip": false,
      "rstrip": false,
      "normalized": false,
      "special": true
    },
    {
      "id": 215,
      "content": "<|reserved_special_token_207|>",
      "single_word": false,
      "lstrip": false,
      "rstrip": false,
      "normalized": false,
      "special": true
    },
    {
      "id": 216,
      "content": "<|reserved_special_token_208|>",
      "single_word": false,
      "lstrip": false,
      "rstrip": false,
      "normalized": false,
      "special": true
    },
    {
      "id": 217,
      "content": "<|reserved_special_token_209|>",
      "single_word": false,
      "lstrip": false,
      "rstrip": false,
      "normalized": false,
      "special": true
    },
    {
      "id": 218,
      "content": "<|reserved_special_token_210|>",
      "single_word": false,
      "lstrip": false,
      "rstrip": false,
      "normalized": false,
      "special": true
    },
    {
      "id": 219,
      "content": "<|reserved_special_token_211|>",
      "single_word": false,
      "lstrip": false,
      "rstrip": false,
      "normalized": false,
      "special": true
    },
    {
      "id": 220,
      "content": "<|reserved_special_token_212|>",
      "single_word": false,
      "lstrip": false,
      "rstrip": false,
      "normalized": false,
      "special": true
    },
    {
      "id": 221,
      "content": "<|reserved_special_token_213|>",
      "single_word": false,
      "lstrip": false,
      "rstrip": false,
      "normalized": false,
      "special": true
    },
    {
      "id": 222,
      "content": "<|reserved_special_token_214|>",
      "single_word": false,
      "lstrip": false,
      "rstrip": false,
      "normalized": false,
      "special": true
    },
    {
      "id": 223,
      "content": "<|reserved_special_token_215|>",
      "single_word": false,
      "lstrip": false,
      "rstrip": false,
      "normalized": false,
      "special": true
    },
    {
      "id": 224,
      "content": "<|reserved_special_token_216|>",
      "single_word": false,
      "lstrip": false,
      "rstrip": false,
      "normalized": false,
      "special": true
    },
    {
      "id": 225,
      "content": "<|reserved_special_token_217|>",
      "single_word": false,
      "lstrip": false,
      "rstrip": false,
      "normalized": false,
      "special": true
    },
    {
      "id": 226,
      "content": "<|reserved_special_token_218|>",
      "single_word": false,
      "lstrip": false,
      "rstrip": false,
      "normalized": false,
      "special": true
    },
    {
      "id": 227,
      "content": "<|reserved_special_token_219|>",
      "single_word": false,
      "lstrip": false,
      "rstrip": false,
      "normalized": false,
      "special": true
    },
    {
      "id": 228,
      "content": "<|reserved_special_token_220|>",
      "single_word": false,
      "lstrip": false,
      "rstrip": false,
      "normalized": false,
      "special": true
    },
    {
      "id": 229,
      "content": "<|reserved_special_token_221|>",
      "single_word": false,
      "lstrip": false,
      "rstrip": false,
      "normalized": false,
      "special": true
    },
    {
      "id": 230,
      "content": "<|reserved_special_token_222|>",
      "single_word": false,
      "lstrip": false,
      "rstrip": false,
      "normalized": false,
      "special": true
    },
    {
      "id": 231,
      "content": "<|reserved_special_token_223|>",
      "single_word": false,
      "lstrip": false,
      "rstrip": false,
      "normalized": false,
      "special": true
    },
    {
      "id": 232,
      "content": "<|reserved_special_token_224|>",
      "single_word": false,
      "lstrip": false,
      "rstrip": false,
      "normalized": false,
      "special": true
    },
    {
      "id": 233,
      "content": "<|reserved_special_token_225|>",
      "single_word": false,
      "lstrip": false,
      "rstrip": false,
      "normalized": false,
      "special": true
    },
    {
      "id": 234,
      "content": "<|reserved_special_token_226|>",
      "single_word": false,
      "lstrip": false,
      "rstrip": false,
      "normalized": false,
      "special": true
    },
    {
      "id": 235,
      "content": "<|reserved_special_token_227|>",
      "single_word": false,
      "lstrip": false,
      "rstrip": false,
      "normalized": false,
      "special": true
    },
    {
      "id": 236,
      "content": "<|reserved_special_token_228|>",
      "single_word": false,
      "lstrip": false,
      "rstrip": false,
      "normalized": false,
      "special": true
    },
    {
      "id": 237,
      "content": "<|reserved_special_token_229|>",
      "single_word": false,
      "lstrip": false,
      "rstrip": false,
      "normalized": false,
      "special": true
    },
    {
      "id": 238,
      "content": "<|reserved_special_token_230|>",
      "single_word": false,
      "lstrip": false,
      "rstrip": false,
      "normalized": false,
      "special": true
    },
    {
      "id": 239,
      "content": "<|reserved_special_token_231|>",
      "single_word": false,
      "lstrip": false,
      "rstrip": false,
      "normalized": false,
      "special": true
    },
    {
      "id": 240,
      "content": "<|reserved_special_token_232|>",
      "single_word": false,
      "lstrip": false,
      "rstrip": false,
      "normalized": false,
      "special": true
    },
    {
      "id": 241,
      "content": "<|reserved_special_token_233|>",
      "single_word": false,
      "lstrip": false,
      "rstrip": false,
      "normalized": false,
      "special": true
    },
    {
      "id": 242,
      "content": "<|reserved_special_token_234|>",
      "single_word": false,
      "lstrip": false,
      "rstrip": false,
      "normalized": false,
      "special": true
    },
    {
      "id": 243,
      "content": "<|reserved_special_token_235|>",
      "single_word": false,
      "lstrip": false,
      "rstrip": false,
      "normalized": false,
      "special": true
    },
    {
      "id": 244,
      "content": "<|reserved_special_token_236|>",
      "single_word": false,
      "lstrip": false,
      "rstrip": false,
      "normalized": false,
      "special": true
    },
    {
      "id": 245,
      "content": "<|reserved_special_token_237|>",
      "single_word": false,
      "lstrip": false,
      "rstrip": false,
      "normalized": false,
      "special": true
    },
    {
      "id": 246,
      "content": "<|reserved_special_token_238|>",
      "single_word": false,
      "lstrip": false,
      "rstrip": false,
      "normalized": false,
      "special": true
    },
    {
      "id": 247,
      "content": "<|reserved_special_token_239|>",
      "single_word": false,
      "lstrip": false,
      "rstrip": false,
      "normalized": false,
      "special": true
    },
    {
      "id": 248,
      "content": "<|reserved_special_token_240|>",
      "single_word": false,
      "lstrip": false,
      "rstrip": false,
      "normalized": false,
      "special": true
    },
    {
      "id": 249,
      "content": "<|reserved_special_token_241|>",
      "single_word": false,
      "lstrip": false,
      "rstrip": false,
      "normalized": false,
      "special": true
    },
    {
      "id": 250,
      "content": "<|reserved_special_token_242|>",
      "single_word": false,
      "lstrip": false,
      "rstrip": false,
      "normalized": false,
      "special": true
    },
    {
      "id": 251,
      "content": "<|reserved_special_token_243|>",
      "single_word": false,
      "lstrip": false,
      "rstrip": false,
      "normalized": false,
      "special": true
    },
    {
      "id": 252,
      "content": "<|reserved_special_token_244|>",
      "single_word": false,
      "lstrip": false,
      "rstrip": false,
      "normalized": false,
      "special": true
    },
    {
      "id": 253,
      "content": "<|reserved_special_token_245|>",
      "single_word": false,
      "lstrip": false,
      "rstrip": false,
      "normalized": false,
      "special": true
    },
    {
      "id": 254,
      "content": "<|reserved_special_token_246|>",
      "single_word": false,
      "lstrip": false,
      "rstrip": false,
      "normalized": false,
      "special": true
    },
    {
      "id": 255,
      "content": "<|reserved_special_token_247|>",
      "single_word": false,
      "lstrip": false,
      "rstrip": false,
      "normalized": false,
      "special": true
    }
  ],
  "normalizer": null,
  "pre_tokenizer": {
    "type": "Sequence",
    "pretokenizers": [
      {
        "type": "Split",
        "pattern": {
          "Regex": "(?i:'s|'t|'re|'ve|'m|'ll|'d)|[^\\r\\n\\p{L}\\p{N}]?\\p{L}+|\\p{N}{1,3}| ?[^\\s\\p{L}\\p{N}]+[\\r\\n]*|\\s*[\\r\\n]+|\\s+(?!\\S)|\\s+"
        },
        "behavior": "Isolated",
        "invert": false
      },
      {
        "type": "ByteLevel",
        "add_prefix_space": false,
        "trim_offsets": true,
        "use_regex": false
      }
    ]
  },
  "post_processor": {
    "type": "Sequence",
    "processors": [
      {
        "type": "ByteLevel",
        "add_prefix_space": true,
        "trim_offsets": false,
        "use_regex": true
      },
      {
        "type": "TemplateProcessing",
        "single": [
          {
            "SpecialToken": {
              "id": "<|begin_of_text|>",
              "type_id": 0
            }
          },
          {
            "Sequence": {
              "id": "A",
              "type_id": 0
            }
          }
        ],
        "pair": [
          {
            "SpecialToken": {
              "id": "<|begin_of_text|>",
              "type_id": 0
            }
          },
          {
            "Sequence": {
              "id": "A",
              "type_id": 0
            }
          },
          {
            "SpecialToken": {
              "id": "<|begin_of_text|>",
              "type_id": 1
            }
          },
          {
            "Sequence": {
              "id": "B",
              "type_id": 1
            }
          }
        ],
        "special_tokens": {
          "<|begin_of_text|>": {
            "id": "<|begin_of_text|>",
            "ids": [
              128000
            ],
            "tokens": [
              "<|begin_of_text|>"
            ]
          }
        }
      }
    ]
  },
  "decoder": {
    "type": "ByteLevel",
    "add_prefix_space": true,
    "trim_offsets": true,
    "use_regex": true
  },
  "model": {
    "type": "BPE",
    "dropout": null,
    "unk_token": null,
    "continuing_subword_prefix": null,
    "end_of_word_suffix": null,
    "fuse_unk": false,
    "byte_fallback": false,
    "ignore_merges": true,
    "vocab": {
      "<|begin_of_text|>": 0,
      "<|end_of_text|>": 1,
      "<|reserved_special_token_0|>": 2,
      "<|reserved_special_token_1|>": 3,
      "<|finetune_right_pad_id|>": 4,
      "<|reserved_special_token_2|>": 5,
      "<|start_header_id|>": 6,
      "<|end_header_id|>": 7,
      "<|eom_id|>": 8,
      "<|eot_id|>": 9,
      "<|python_tag|>": 10,
      "<|reserved_special_token_3|>": 11,
      "<|reserved_special_token_4|>": 12,
      "<|reserved_special_token_5|>": 13,
      "<|reserved_special_token_6|>": 14,
      "<|reserved_special_token_7|>": 15,
      "<|reserved_special_token_8|>": 16,
      "<|reserved_special_token_9|>": 17,
      "<|reserved_special_token_10|>": 18,
      "<|reserved_special_token_11|>": 19,
      "<|reserved_special_token_12|>": 20,
      "<|reserved_special_token_13|>": 21,
      "<|reserved_special_token_14|>": 22,
      "<|reserved_special_token_15|>": 23,
      "<|reserved_special_token_16|>": 24,
      "<|reserved_special_token_17|>": 25,
      "<|reserved_special_token_18|>": 26,
      "<|reserved_special_token_19|>": 27,
      "<|reserved_special_token_20|>": 28,
      "<|reserved_special_token_21|>": 29,
      "<|reserved_special_token_22|>": 30,
      "<|reserved_special_token_23|>": 31,
      "<|reserved_special_token_24|>": 32,
      "<|reserved_special_token_25|>": 33,
      "<|reserved_special_token_26|>": 34,
      "<|reserved_special_token_27|>": 35,
      "<|reserved_special_token_28|>": 36,
      "<|reserved_special_token_29|>": 37,
      "<|reserved_special_token_30|>": 38,
      "<|reserved_special_token_31|>": 39,
      "<|reserved_special_token_32|>": 40,
      "<|reserved_special_token_33|>": 41,
      "<|reserved_special_token_34|>": 42,
      "<|reserved_special_token_35|>": 43,
      "<|reserved_special_token_36|>": 44,
      "<|reserved_special_token_37|>": 45,
      "<|reserved_special_token_38|>": 46,
      "<|reserved_special_token_39|>": 47,
      "<|reserved_special_token_40|>": 48,
      "<|reserved_special_token_41|>": 49,
      "<|reserved_special_token_42|>": 50,
      "<|reserved_special_token_43|>": 51,
      "<|reserved_special_token_44|>": 52,
      "<|reserved_special_token_45|>": 53,
      "<|reserved_special_token_46|>": 54,
      "<|reserved_special_token_47|>": 55,
      "<|reserved_special_token_48|>": 56,
      "<|reserved_special_token_49|>": 57,
      "<|reserved_special_token_50|>": 58,
      "<|reserved_special_token_51|>": 59,
      "<|reserved_special_token_52|>": 60,
      "<|reserved_special_token_53|>": 61,
      "<|reserved_special_token_54|>": 62,
      "<|reserved_special_token_55|>": 63,
      "<|reserved_special_token_56|>": 64,
      "<|reserved_special_token_57|>": 65,
      "<|reserved_special_token_58|>": 66,
      "<|reserved_special_token_59|>": 67,
      "<|reserved_special_token_60|>": 68,
      "<|reserved_special_token_61|>": 69,
      "<|reserved_special_token_62|>": 70,
      "<|reserved_special_token_63|>": 71,
      "<|reserved_special_token_64|>": 72,
      "<|reserved_special_token_65|>": 73,
      "<|reserved_special_token_66|>": 74,
      "<|reserved_special_token_67|>": 75,
      "<|reserved_special_token_68|>": 76,
      "<|reserved_special_token_69|>": 77,
      "<|reserved_special_token_70|>": 78,
      "<|reserved_special_token_71|>": 79,
      "<|reserved_special_token_72|>": 80,
      "<|reserved_special_token_73|>": 81,
      "<|reserved_special_token_74|>": 82,
      "<|reserved_special_token_75|>": 83,
      "<|reserved_special_token_76|>": 84,
      "<|reserved_special_token_77|>": 85,
      "<|reserved_special_token_78|>": 86,
      "<|reserved_special_token_79|>": 87,
      "<|reserved_special_token_80|>": 88,
      "<|reserved_special_token_81|>": 89,
      "<|reserved_special_token_82|>": 90,
      "<|reserved_special_token_83|>": 91,
      "<|reserved_special_token_84|>": 92,
      "<|reserved_special_token_85|>": 93,
      "<|reserved_special_token_86|>": 94,
      "<|reserved_special_token_87|>": 95,
      "<|reserved_special_token_88|>": 96,
      "<|reserved_special_token_89|>": 97,
      "<|reserved_special_token_90|>": 98,
      "<|reserved_special_token_91|>": 99,
      "<|reserved_special_token_92|>": 100,
      "<|reserved_special_token_93|>": 101,
      "<|reserved_special_token_94|>": 102,
      "<|reserved_special_token_95|>": 103,
      "<|reserved_special_token_96|>": 104,
      "<|reserved_special_token_97|>": 105,
      "<|reserved_special_token_98|>": 106,
      "<|reserved_special_token_99|>": 107,
      "<|reserved_special_token_100|>": 108,
      "<|reserved_special_token_101|>": 109,
      "<|reserved_special_token_102|>": 110,
      "<|reserved_special_token_103|>": 111,
      "<|reserved_special_token_104|>": 112,
      "<|reserved_special_token_105|>": 113,
      "<|reserved_special_token_106|>": 114,
      "<|reserved_special_token_107|>": 115,
      "<|reserved_special_token_108|>": 116,
      "<|reserved_special_token_109|>": 117,
      "<|reserved_special_token_110|>": 118,
      "<|reserved_special_token_111|>": 119,
      "<|reserved_special_token_112|>": 120,
      "<|reserved_special_token_113|>": 121,
      "<|reserved_special_token_114|>": 122,
      "<|reserved_special_token_115|>": 123,
      "<|reserved_special_token_116|>": 124,
      "<|reserved_special_token_117|>": 125,
      "<|reserved_special_token_118|>": 126,
      "<|reserved_special_token_119|>": 127,
      "<|reserved_special_token_120|>": 128,
      "<|reserved_special_token_121|>": 129,
      "<|reserved_special_token_122|>": 130,
      "<|reserved_special_token_123|>": 131,
      "<|reserved_special_token_124|>": 132,
      "<|reserved_special_token_125|>": 133,
      "<|reserved_special_token_126|>": 134,
      "<|reserved_special_token_127|>": 135,
      "<|reserved_special_token_128|>": 136,
      "<|reserved_special_token_129|>": 137,
      "<|reserved_special_token_130|>": 138,
      "<|reserved_special_token_131|>": 139,
      "<|reserved_special_token_132|>": 140,
      "<|reserved_special_token_133|>": 141,
      "<|reserved_special_token_134|>": 142,
      "<|reserved_special_token_135|>": 143,
      "<|reserved_special_token_136|>": 144,
      "<|reserved_special_token_137|>": 145,
      "<|reserved_special_token_138|>": 146,
      "<|reserved_special_token_139|>": 147,
      "<|reserved_special_token_140|>": 148,
      "<|reserved_special_token_141|>": 149,
      "<|reserved_special_token_142|>": 150,
      "<|reserved_special_token_143|>": 151,
      "<|reserved_special_token_144|>": 152,
      "<|reserved_special_token_145|>": 153,
      "<|reserved_special_token_146|>": 154,
      "<|reserved_special_token_147|>": 155,
      "<|reserved_special_token_148|>": 156,
      "<|reserved_special_token_149|>": 157,
      "<|reserved_special_token_150|>": 158,
      "<|reserved_special_token_151|>": 159,
      "<|reserved_special_token_152|>": 160,
      "<|reserved_special_token_153|>": 161,
      "<|reserved_special_token_154|>": 162,
      "<|reserved_special_token_155|>": 163,
      "<|reserved_special_token_156|>": 164,
      "<|reserved_special_token_157|>": 165,
      "<|reserved_special_token_158|>": 166,
      "<|reserved_special_token_159|>": 167,
      "<|reserved_special_token_160|>": 168,
      "<|reserved_special_token_161|>": 169,
      "<|reserved_special_token_162|>": 170,
      "<|reserved_special_token_163|>": 171,
      "<|reserved_special_token_164|>": 172,
      "<|reserved_special_token_165|>": 173,
      "<|reserved_special_token_166|>": 174,
      "<|reserved_special_token_167|>": 175,
      "<|reserved_special_token_168|>": 176,
      "<|reserved_special_token_169|>": 177,
      "<|reserved_special_token_170|>": 178,
      "<|reserved_special_token_171|>": 179,
      "<|reserved_special_token_172|>": 180,
      "<|reserved_special_token_173|>": 181,
      "<|reserved_special_token_174|>": 182,
      "<|reserved_special_token_175|>": 183,
      "<|reserved_special_token_176|>": 184,
      "<|reserved_special_token_177|>": 185,
      "<|reserved_special_token_178|>": 186,
      "<|reserved_special_token_179|>": 187,
      "<|reserved_special_token_180|>": 188,
      "<|reserved_special_token_181|>": 189,
      "<|reserved_special_token_182|>": 190,
      "<|reserved_special_token_183|>": 191,
      "<|reserved_special_token_184|>": 192,
      "<|reserved_special_token_185|>": 193,
      "<|reserved_special_token_186|>": 194,
      "<|reserved_special_token_187|>": 195,
      "<|reserved_special_token_188|>": 196,
      "<|reserved_special_token_189|>": 197,
      "<|reserved_special_token_190|>": 198,
      "<|reserved_special_token_191|>": 199,
      "<|reserved_special_token_192|>": 200,
      "<|reserved_special_token_193|>": 201,
      "<|reserved_special_token_194|>": 202,
      "<|reserved_special_token_195|>": 203,
      "<|reserved_special_token_196|>": 204,
      "<|reserved_special_token_197|>": 205,
      "<|reserved_special_token_198|>": 206,
      "<|reserved_special_token_199|>": 207,
      "<|reserved_special_token_200|>": 208,
      "<|reserved_special_token_201|>": 209,
      "<|reserved_special_token_202|>": 210,
      "<|reserved_special_token_203|>": 211,
      "<|reserved_special_token_204|>": 212,
      "<|reserved_special_token_205|>": 213,
      "<|reserved_special_token_206|>": 214,
      "<|reserved_special_token_207|>": 215,
      "<|reserved_special_token_208|>": 216,
      "<|reserved_special_token_209|>": 217,
      "<|reserved_special_token_210|>": 218,
      "<|reserved_special_token_211|>": 219,
      "<|reserved_special_token_212|>": 220,
      "<|reserved_special_token_213|>": 221,
      "<|reserved_special_token_214|>": 222,
      "<|reserved_special_token_215|>": 223,
      "<|reserved_special_token_216|>": 224,
      "<|reserved_special_token_217|>": 225,
      "<|reserved_special_token_218|>": 226,
      "<|reserved_special_token_219|>": 227,
      "<|reserved_special_token_220|>": 228,
      "<|reserved_special_token_221|>": 229,
      "<|reserved_special_token_222|>": 230,
      "<|reserved_special_token_223|>": 231,
      "<|reserved_special_token_224|>": 232,
      "<|reserved_special_token_225|>": 233,
      "<|reserved_special_token_226|>": 234,
      "<|reserved_special_token_227|>": 235,
      "<|reserved_special_token_228|>": 236,
      "<|reserved_special_token_229|>": 237,
      "<|reserved_special_token_230|>": 238,
      "<|reserved_special_token_231|>": 239,
      "<|reserved_special_token_232|>": 240,
      "<|reserved_special_token_233|>": 241,
      "<|reserved_special_token_234|>": 242,
      "<|reserved_special_token_235|>": 243,
      "<|reserved_special_token_236|>": 244,
      "<|reserved_special_token_237|>": 245,
      "<|reserved_special_token_238|>": 246,
      "<|reserved_special_token_239|>": 247,
      "<|reserved_special_token_240|>": 248,
      "<|reserved_special_token_241|>": 249,
      "<|reserved_special_token_242|>": 250,
      "<|reserved_special_token_243|>": 251,
      "<|reserved_special_token_244|>": 252,
      "<|reserved_special_token_245|>": 253,
      "<|reserved_special_token_246|>": 254,
      "<|reserved_special_token_247|>": 255,
      "!": 256,
      "\"": 257,
      "#": 258,
      "$": 259,
      "%": 260,
      "&": 261,
      "'": 262,
      "(": 263,
      ")": 264,
      "*": 265,
      "+": 266,
      ",": 267,
      "-": 268,
      ".": 269,
      "/": 270,
      "0": 271,
      "1": 272,
      "2": 273,
      "3": 274,
      "4": 275,
      "5": 276,
      "6": 277,
      "7": 278,
      "8": 279,
      "9": 280,
      ":": 281,
      ";": 282,
      "<": 283,
      "=": 284,
      ">": 285,
      "?": 286,
      "@": 287,
      "A": 288,
      "B": 289,
      "C": 290,
      "D": 291,
      "E": 292,
      "F": 293,
      "G": 294,
      "H": 295,
      "I": 296,
      "J": 297,
      "K": 298,
      "L": 299,
      "M": 300,
      "N": 301,
      "O": 302,
      "P": 303,
      "Q": 304,
      "R": 305,
      "S": 306,
      "T": 307,
      "U": 308,
      "V": 309,
      "W": 310,
      "X": 311,
      "Y": 312,
      "Z": 313,
      "[": 314,
      "\\": 315,
      "]": 316,
      "^": 317,
      "_": 318,
      "`": 319,
      "a": 320,
      "b": 321,
      "c": 322,
      "d": 323,
      "e": 324,
      "f": 325,
      "g": 326,
      "h": 327,
      "i": 328,
      "j": 329,
      "k": 330,
      "l": 331,
      "m": 332,
      "n": 333,
      "o": 334,
      "p": 335,
      "q": 336,
      "r": 337,
      "s": 338,
      "t": 339,
      "u": 340,
      "v": 341,
      "w": 342,
      "x": 343,
      "y": 344,
      "z": 345,
      "{": 346,
      "|": 347,
      "}": 348,
      "~": 349,
      "¡": 350,
      "¢": 351,
      "£": 352,
      "¤": 353,
      "¥": 354,
      "¦": 355,
      "§": 356,
      "¨": 357,
      "©": 358,
      "ª": 359,
      "«": 360,
      "¬": 361,
      "®": 362,
      "¯": 363,
      "°": 364,
      "±": 365,
      "²": 366,
      "³": 367,
      "´": 368,
      "µ": 369,
      "¶": 370,
      "·": 371,
      "¸": 372,
      "¹": 373,
      "º": 374,
      "»": 375,
      "¼": 376,
      "½": 377,
      "¾": 378,
      "¿": 379,
      "À": 380,
      "Á": 381,
      "Â": 382,
      "Ã": 383,
      "Ä": 384,
      "Å": 385,
      "Æ": 386,
      "Ç": 387,
      "È": 388,
      "É": 389,
      "Ê": 390,
      "Ë": 391,
      "Ì": 392,
      "Í": 393,
      "Î": 394,
      "Ï": 395,
      "Ð": 396,
      "Ñ": 397,
      "Ò": 398,
      "Ó": 399,
      "Ô": 400,
      "Õ": 401,
      "Ö": 402,
      "×": 403,
      "Ø": 404,
      "Ù": 405,
      "Ú": 406,
      "Û": 407,
      "Ü": 408,
      "Ý": 409,
      "Þ": 410,
      "ß": 411,
      "à": 412,
      "á": 413,
      "â": 414,
      "ã": 415,
      "ä": 416,
      "å": 417,
      "æ": 418,
      "ç": 419,
      "è": 420,
      "é": 421,
      "ê": 422,
      "ë": 423,
      "ì": 424,
      "í": 425,
      "î": 426,
      "ï": 427,
      "ð": 428,
      "ñ": 429,
      "ò": 430,
      "ó": 431,
      "ô": 432,
      "õ": 433,
      "ö": 434,
      "÷": 435,
      "ø": 436,
      "ù": 437,
      "ú": 438,
      "û": 439,
      "ü": 440,
      "ý": 441,
      "þ": 442,
      "ÿ": 443,
      "Ā": 444,
      "ā": 445,
      "Ă": 446,
      "ă": 447,
      "Ą": 448,
      "ą": 449,
      "Ć": 450,
      "ć": 451,
      "Ĉ": 452,
      "ĉ": 453,
      "Ċ": 454,
      "ċ": 455,
      "Č": 456,
      "č": 457,
      "Ď": 458,
      "ď": 459,
      "Đ": 460,
      "đ": 461,
      "Ē": 462,
      "ē": 463,
      "Ĕ": 464,
      "ĕ": 465,
      "Ė": 466,
      "ė": 467,
      "Ę": 468,
      "ę": 469,
      "Ě": 470,
      "ě": 471,
      "Ĝ": 472,
      "ĝ": 473,
      "Ğ": 474,
      "ğ": 475,
      "Ġ": 476,
      "ġ": 477,
      "Ģ": 478,
      "ģ": 479,
      "Ĥ": 480,
      "ĥ": 481,
      "Ħ": 482,
      "ħ": 483,
      "Ĩ": 484,
      "ĩ": 485,
      "Ī": 486,
      "ī": 487,
      "Ĭ": 488,
      "ĭ": 489,
      "Į": 490,
      "į": 491,
      "İ": 492,
      "ı": 493,
      "Ĳ": 494,
      "ĳ": 495,
      "Ĵ": 496,
      "ĵ": 497,
      "Ķ": 498,
      "ķ": 499,
      "ĸ": 500,
      "Ĺ": 501,
      "ĺ": 502,
      "Ļ": 503,
      "ļ": 504,
      "Ľ": 505,
      "ľ": 506,
      "Ŀ": 507,
      "ŀ": 508,
      "Ł": 509,
      "ł": 510,
      "Ń": 511,
      "Ġ×": 512,
      "×Ļ": 513,
      "×ķ": 514,
      "×ķ×": 515,
      "×Ļ×": 516,
      "×¨": 517,
      "×Ķ": 518,
      "Ġ×Ķ": 519,
      "×ľ": 520,
      "ŀ×": 521,
      "×ª": 522,
      "×Ĳ": 523,
      "Ġ×ĳ": 524,
      "×ĳ": 525,
      "Ġ×Ķ×": 526,
      "×ł": 527,
      "×©": 528,
      "Ġ×©": 529,
      "×ķ×ª": 530,
      "×Ļ×Ŀ": 531,
      "×ĵ": 532,
      "Ġ×ľ": 533,
      "Ġ×Ĳ": 534,
      "×ŀ×": 535,
      "×§": 536,
      "×Ĺ": 537,
      "×¤": 538,
      "×¢": 539,
      "Ġ×ŀ×": 540,
      "×ķ×¨": 541,
      "×ĺ": 542,
      "×¡": 543,
      "Ġ×ķ": 544,
      "×ŀ": 545,
      "×Ĵ": 546,
      "×Ľ": 547,
      "×Ļ×ª": 548,
      "×Ŀ": 549,
      "Ġ×¢": 550,
      "ĊĊ": 551,
      "×Ļ×Ķ": 552,
      "Ġ×©×ľ": 553,
      "}}": 554,
      "×¦": 555,
      "Ġ×Ľ": 556,
      "×ķ×ł": 557,
      "×ķ×ľ": 558,
      "×Ļ×¨": 559,
      "Ġ×Ļ": 560,
      "Ġ×ŀ": 561,
      "Ġ×ł": 562,
      "×Ł": 563,
      "{{": 564,
      "×Ļ×ł": 565,
      "20": 566,
      "×ķ×Ł": 567,
      "×ķ×ĳ": 568,
      "×Ļ×ľ": 569,
      "Ġ×¤": 570,
      "×ķ×ĵ": 571,
      "×ĸ": 572,
      "Ġ×§": 573,
      "×ĳ×¨": 574,
      "Ġ=": 575,
      "Ġ(": 576,
      "×ķ×Ĳ": 577,
      "Ġ×Ķ×ŀ×": 578,
      "Ġ×Ĺ": 579,
      "Ġ×¡": 580,
      "×Ļ×§": 581,
      "Ġ×Ĵ": 582,
      "Ġ×¨": 583,
      "19": 584,
      "Ġ×ª": 585,
      "×ķ×¡": 586,
      "×ļ": 587,
      ".ĊĊ": 588,
      "×Ļ×ĵ": 589,
      "Ġ×Ĳ×ª": 590,
      "×ķ×¤": 591,
      "×Ļ×Ĳ": 592,
      "×Ĺ×¨": 593,
      "×Ļ×©": 594,
      "×¤×¨": 595,
      "×Ļ×ĳ": 596,
      "×Ļ×Ł": 597,
      "×¨×Ĳ": 598,
      "Ġ×¢×ľ": 599,
      "Ġ×ĵ": 600,
      "Ġ×Ķ×Ĳ": 601,
      "×ķ×Ŀ": 602,
      "×¨×Ķ": 603,
      "×ł×Ļ": 604,
      "×Ļ×ĺ": 605,
      "×ķ×¢": 606,
      "×ķ×¦": 607,
      "Ġ×Ķ×©": 608,
      "Ġ×ĳ×Ĳ": 609,
      "×ķ×Ĵ": 610,
      "Ġ×ľ×Ĳ": 611,
      "×ķ×§": 612,
      "×Ļ×¡": 613,
      "×Ļ×ķ": 614,
      "Ġ×ĳ×©": 615,
      "11": 616,
      "Ġ×ĸ": 617,
      "201": 618,
      "×ķ×©": 619,
      "Ġ×ķ×Ķ": 620,
      "Ġ×ĳ×ŀ×": 621,
      "×ł×ª": 622,
      "Ġ\"": 623,
      "×Ļ×ķ×ª": 624,
      "×ķ×ŀ": 625,
      "×Ĳ×¨": 626,
      "Ġ×Ķ×¢": 627,
      "×Ļ×Ļ×Ŀ": 628,
      "er": 629,
      "Ġ×ľ×Ķ": 630,
      "×Ļ×¤": 631,
      "=Ċ": 632,
      "Ġ×Ķ×ª": 633,
      "×Ļ×ŀ": 634,
      "×ł×Ķ": 635,
      "×ķ×ł×Ķ": 636,
      "×Ĵ×ľ": 637,
      "×ķ×Ĺ": 638,
      "Ġ×¦": 639,
      "Ġ{{": 640,
      "Ġ×Ķ×Ĺ": 641,
      "Ġ×Ķ×§": 642,
      "×ľ×Ĳ": 643,
      "×ľ×Ķ": 644,
      "×Ļ×¢": 645,
      "×¨×ĳ": 646,
      "Ġ×ŀ×©": 647,
      "×Ķ×¢": 648,
      "âĢ": 649,
      "Ġ×Ķ×ŀ": 650,
      "or": 651,
      "×ŀ×Ķ": 652,
      "×£": 653,
      "in": 654,
      "Ġ×ĳ×¢": 655,
      "×ķ×Ľ": 656,
      "||": 657,
      "×¨×Ļ×Ŀ": 658,
      "Ġ×Ķ×ķ×Ĳ": 659,
      "=\"": 660,
      "an": 661,
      "|-": 662,
      "Ġ×Ķ×¤": 663,
      "×ķ×ĸ": 664,
      "×ĺ×¨": 665,
      "×ŀ×©": 666,
      "at": 667,
      "le": 668,
      "Ġ×Ķ×¡": 669,
      "×ŀ×¨": 670,
      "Ġ×ĳ×ª": 671,
      "×ĵ×Ļ": 672,
      "×ľ×Ļ": 673,
      "×Ķ×¢×¨×Ķ": 674,
      "×ĵ×¨": 675,
      "×Ļ×¦": 676,
      "|×ª": 677,
      "on": 678,
      "Ġ×ĺ": 679,
      "200": 680,
      "00": 681,
      "×Ļ×ļ": 682,
      "×Ĵ×¨": 683,
      "×Ļ×Ĵ": 684,
      "×ŀ×ł": 685,
      "ar": 686,
      "×ķ×ĺ": 687,
      "Ġ×Ķ×ĳ": 688,
      "Ġ×ĳ×Ķ": 689,
      "|×©": 690,
      "Ġ×©×Ķ": 691,
      "Ġ×ķ×ĳ": 692,
      "×Ļ×Ĺ": 693,
      "×Ļ×¨×Ķ": 694,
      "al": 695,
      "en": 696,
      "}}Ċ": 697,
      "×©×¨": 698,
      "Ġ×Ĳ×ľ": 699,
      "st": 700,
      "×Ļ×Ľ": 701,
      "×ł×Ļ×Ŀ": 702,
      "Ġ×¢×Ŀ": 703,
      "Ġ×Ķ×ł": 704,
      "×¨×Ľ": 705,
      "×¤×ª": 706,
      "×¨×ĺ": 707,
      "Ġ×Ķ×Ĵ": 708,
      "×¥": 709,
      "ĠĊ": 710,
      "×¨×Ĳ×©": 711,
      "×ķ×ŀ×": 712,
      "Ġ×ŀ×Ĳ": 713,
      "|×Ĳ": 714,
      "|-Ċ": 715,
      "202": 716,
      "Ġ×ĳ×¡": 717,
      "ht": 718,
      "}}ĊĊ": 719,
      "Ġ×ŀ×¡": 720,
      "×ķ×ķ": 721,
      "Ġ×Ķ×¦": 722,
      "×Ļ×ĸ": 723,
      "Ġ×ĳ×¨": 724,
      "×Ĺ×§": 725,
      "×Ļ×ŀ×": 726,
      "co": 727,
      "it": 728,
      "re": 729,
      "×Ļ×ł×Ķ": 730,
      "§×ķ×¨": 731,
      "Ġ×¤×¨": 732,
      "Ġ×ľ×ŀ×": 733,
      "Ġ×ŀ×Ķ": 734,
      "Ġ×Ķ×Ľ": 735,
      "|×ŀ×": 736,
      "Ġ×©×Ŀ": 737,
      "Ġ×ŀ×ª": 738,
      "×ŀ×ª": 739,
      "×Ĳ×¨×Ļ×ļ": 740,
      "Ġ×Ķ×¨": 741,
      "ww": 742,
      "×ĳ×¢": 743,
      "Ġ×ľ×©": 744,
      "Ġ×Ĳ×Ĺ×¨": 745,
      "Ġ×ĳ×ł": 746,
      "|×©×Ŀ": 747,
      "×ł×Ļ×ª": 748,
      "×Ĺ×ª": 749,
      "Ġ×Ķ×Ļ×Ķ": 750,
      "×ľ×§": 751,
      "âĢĵ": 752,
      "×ŀ×ķ": 753,
      "×ľ×ĳ": 754,
      "×¨×ª": 755,
      "Ġ×ĳ×©×ł×ª": 756,
      "18": 757,
      "×ł×ĺ": 758,
      "Ġ×Ļ×¦": 759,
      "Ġ×ķ×Ĳ": 760,
      "|Ċ": 761,
      "Ġ×Ļ×©": 762,
      "×Ļ×Ļ×ª": 763,
      "Ġ-": 764,
      "×Ļ×§×Ķ": 765,
      "×§×ĳ": 766,
      "×ķ×¨×Ļ×Ŀ": 767,
      "×ŀ×Ł": 768,
      "th": 769,
      "×¤×§": 770,
      "×ł×¡": 771,
      "×Ľ×ª": 772,
      "×ķ×Ļ": 773,
      "Ġ×©×ĳ": 774,
      "Ġ×Ľ×ľ": 775,
      "Ġ×Ķ×Ķ": 776,
      "//": 777,
      "×ľ×Ĺ": 778,
      "×ŀ×Ĳ": 779,
      "tp": 780,
      "Ġ×Ķ×ĵ": 781,
      "Ġ×ŀ×¢": 782,
      "×¨×Ļ": 783,
      "http": 784,
      "://": 785,
      "×ŀ×ĳ": 786,
      "×¨×Ĳ×ľ": 787,
      "×ķ×Ķ": 788,
      "Ġ×Ĳ×¨": 789,
      "×ł×ĵ": 790,
      "|×ª×Ĳ×¨×Ļ×ļ": 791,
      "Ġ×ŀ×Ľ": 792,
      "Ġ×ŀ×Ĺ": 793,
      "={{": 794,
      "Ġ×Ķ×¨×Ĳ×©": 795,
      "es": 796,
      "×ľ×ª": 797,
      "×ķ×Ĳ×¨": 798,
      "Ġ×ľ×¢": 799,
      "ĠĠ": 800,
      "×©×ª": 801,
      "×©×Ķ": 802,
      "×ķ×¨×Ķ": 803,
      "Ġ||": 804,
      "Ġ×ľ×¤": 805,
      "199": 806,
      "Ġ|": 807,
      "Ġ×ŀ×§": 808,
      "×ł×ķ×ª": 809,
      "×ķ×ł×Ļ": 810,
      "Ġ×Ļ×ĵ×Ļ": 811,
      "×ľ×Ļ×Ŀ": 812,
      "Ġ×Ķ×ĳ×¨": 813,
      "Ġ×ŀ×ĵ": 814,
      "Ġ×ĳ×Ľ": 815,
      "ig": 816,
      "×Ĳ×ķ×ª": 817,
      "Ġ×Ĵ×Ŀ": 818,
      "Ġ×ľ×Ĳ×Ĺ×¨": 819,
      "10": 820,
      "Ġ×¨×ĳ": 821,
      "),": 822,
      "×ķ×ľ×Ŀ": 823,
      "ro": 824,
      "Ġ×ľ×ĳ": 825,
      "ĠâĢ": 826,
      "×¨×¡": 827,
      "×Ļ×¨×ķ×ª": 828,
      "Ġ×Ķ×Ļ×Ĳ": 829,
      "111": 830,
      "×ķ×¨×ļ": 831,
      "×ŀ×ĵ": 832,
      "×ķ×£": 833,
      "ic": 834,
      "×ķ×ļ": 835,
      "×ĵ×ķ×¨": 836,
      "Ġ×ĳ×§": 837,
      "×ª×¨": 838,
      "ĠâĢ¢": 839,
      "id": 840,
      "la": 841,
      "×ĵ×Ķ": 842,
      ".{{": 843,
      "ĠS": 844,
      "Ġ×Ķ×ŀ×©": 845,
      "×ķ×ł×Ļ×Ŀ": 846,
      "×Ĳ×Ļ": 847,
      "Ġ×ŀ×ł": 848,
      "×¦×ķ×ª": 849,
      "×ŀ×Ļ": 850,
      "×ķ×ł×ķ×ª": 851,
      "×Ĺ×ĵ": 852,
      "×Ļ×ľ×Ķ": 853,
      "Ġ×ĳ×ĳ": 854,
      "×ľ×ĺ": 855,
      "Ġ×¢×ĵ": 856,
      "×ŀ×¦": 857,
      "×¨×Ĺ": 858,
      "am": 859,
      "Ġ×ŀ×¤": 860,
      "''": 861,
      "Ġ×Ĳ×ĳ": 862,
      "×¡×ĺ": 863,
      "Ġ×ĸ×Ķ": 864,
      "×ķ×ª×ķ": 865,
      "×Ļ×¡×ĺ": 866,
      ").": 867,
      "×¤×§×Ļ×ĵ": 868,
      "×ŀ×ķ×ł×Ķ": 869,
      "×Ľ×Ķ": 870,
      "×Ļ×ķ×Ł": 871,
      "×ĳ×Ĺ×¨": 872,
      "Ġ×ĳ×Ļ×Ł": 873,
      "×ĳ×©": 874,
      "is": 875,
      "Ġ×ĳ×Ĺ": 876,
      "×ľ×ķ": 877,
      "×ķ×¦×¨": 878,
      "×ŀ×ĳ×¨": 879,
      "Ġ×¨×Ĳ": 880,
      "Ġ×©×ł": 881,
      "×ª×ķ": 882,
      "×ĵ×Ļ×Ŀ": 883,
      "\"Ċ": 884,
      "Ġ×ŀ×¦": 885,
      "</": 886,
      "×¤×ĺ": 887,
      "Ġ×ŀ×ĺ": 888,
      "ac": 889,
      "×Ļ×Ļ×Ķ": 890,
      "×¡×§": 891,
      "il": 892,
      "Ġ×ĳ×¤": 893,
      "Ġ×Ĳ×ķ": 894,
      "×Ĳ×Ķ": 895,
      "\",": 896,
      "12": 897,
      "Ġ×ķ×¢": 898,
      "ĠM": 899,
      "×Ļ×ķ×Ŀ": 900,
      "×Ľ×Ł": 901,
      "×Ĳ×ª": 902,
      "el": 903,
      "|{{": 904,
      "Ġ×ľ×Ĺ": 905,
      "×ĳ×Ļ": 906,
      "Ġ×ŀ×ĳ": 907,
      "ĠA": 908,
      "×ŀ×¢": 909,
      "×Ĳ×ľ": 910,
      "ĠC": 911,
      ".Ċ": 912,
      "×ľ×ļ": 913,
      "×©×Ļ×Ŀ": 914,
      "197": 915,
      "×¨×ļ": 916,
      "198": 917,
      "×¢×ķ×ª": 918,
      "×ķ×¨×ĺ": 919,
      "×Ĳ×ł": 920,
      "Ġ×Ķ×ĳ×¨×Ļ×ª": 921,
      "Ġ×Ķ×ĺ": 922,
      "ent": 923,
      "×Ľ×ľ": 924,
      "Ġ×ķ×ľ": 925,
      "Ġ×Ļ×¦×Ļ×¨×Ķ": 926,
      "×ĳ×ª": 927,
      "Ġ×ŀ×ŀ×": 928,
      "×§×¨": 929,
      "www": 930,
      "de": 931,
      "Ġ×ĳ×Ļ": 932,
      ".co": 933,
      "×ŀ×Ļ×Ŀ": 934,
      "ch": 935,
      "15": 936,
      "×ķ×ĳ×Ķ": 937,
      "|×Ľ": 938,
      "×ŀ×ķ×ª": 939,
      "×¤×Ķ": 940,
      "Ġ×Ĺ×ĳ×¨": 941,
      "×§×Ķ": 942,
      "×ķ×ľ×ĵ": 943,
      "ion": 944,
      "×ª×Ļ": 945,
      "×Ĵ×¨×¡": 946,
      "ĠT": 947,
      "Ġ×¤×¢": 948,
      "×ķ×¤×Ķ": 949,
      "17": 950,
      "ur": 951,
      "×ķ×ľ×Ķ": 952,
      "|×¡": 953,
      "mat": 954,
      "Ġ×ĳ×ŀ": 955,
      "×ĸ×ķ×¨": 956,
      "Ġ×ľ×ª": 957,
      "×¨×Ĵ": 958,
      "×Ļ×ĵ×Ķ": 959,
      "×ĳ×Ĳ": 960,
      "un": 961,
      "Ġ×Ķ×ĸ": 962,
      "×ĳ×ķ×¨": 963,
      "|×Ķ": 964,
      "×ķ×ª×¨": 965,
      "×¨×ĵ": 966,
      "×ķ×¥": 967,
      ")Ċ": 968,
      "13": 969,
      "Ġ×ł×ķ×¡": 970,
      "Ġ×Ĳ×ł": 971,
      "×¢×ª": 972,
      "https": 973,
      "ed": 974,
      "et": 975,
      "16": 976,
      "×ŀ×ľ": 977,
      "§×ķ×Ŀ": 978,
      "14": 979,
      "sp": 980,
      "pg": 981,
      "Ġ×Ĳ×ļ": 982,
      "×§×ĵ": 983,
      "Ġ×Ķ×ŀ×Ĳ": 984,
      "ĠB": 985,
      "Ġ×§×¨": 986,
      "Ġ×Ĳ×Ĺ×¨×ķ×ª": 987,
      "Ġ×ķ×©": 988,
      "194": 989,
      "Ġ×Ķ×ŀ×§×ķ×¨": 990,
      "×ł×Ļ×Ķ": 991,
      "Ġ×¨×Ĳ×©": 992,
      "Ġ×Ľ×©": 993,
      "Ġ×ĳ×Ĵ": 994,
      "×ł×ķ": 995,
      "×ĳ×Ķ": 996,
      "×ķ×ŀ×Ļ": 997,
      "×Ĺ×Ķ": 998,
      "×Ļ×Ļ×ª×Ķ": 999,
      "×ķ×ª×Ķ": 1000,
      "×ķ×¨×ª": 1001,
      "ĊĊĊ": 1002,
      "ĠR": 1003,
      "--": 1004,
      "us": 1005,
      "jpg": 1006,
      "×ŀ×Ĺ": 1007,
      "×ł×§": 1008,
      "he": 1009,
      "Ġ×ľ×¦": 1010,
      "×Ļ×Ĳ×ķ×¨": 1011,
      "Ġ×ŀ×Ĵ": 1012,
      "×ĳ×¨×Ķ": 1013,
      "Ġ×Ļ×©×¨×Ĳ×ľ": 1014,
      "×ķ×ľ×Ļ": 1015,
      "×ķ×¡×ĺ": 1016,
      "|×Ļ": 1017,
      "|×ŀ×§×ķ×¨": 1018,
      "math": 1019,
      "Ġ×ľ×¡": 1020,
      "Ġw": 1021,
      "Ġ×Ķ×©×ł×Ļ": 1022,
      "×ŀ×¤": 1023,
      "×ĳ×Ĺ×¨×ª": 1024,
      "ĠP": 1025,
      "×Ĵ×ĵ": 1026,
      "Ġ×Ľ×Ĳ": 1027,
      "Ġ×ĳ×¦": 1028,
      "Ġ×ĳ×ĵ": 1029,
      "×ķ×¦×Ķ": 1030,
      "×ĳ×Ļ×Ŀ": 1031,
      "Ġ×Ľ×Ļ": 1032,
      "×Ļ×©×ķ×¨×Ļ×Ŀ": 1033,
      "Ġ×ĳ×ľ": 1034,
      "Ġ=Ċ": 1035,
      "×ĵ×ķ×¨×Ĵ×ľ": 1036,
      "Ġ×ĳ×Ļ×ª": 1037,
      "Ġ×Ķ×ķ×¤": 1038,
      "196": 1039,
      "×Ļ×ª×¨×Ļ×Ŀ": 1040,
      "Ġ×¡×¤×¨": 1041,
      "ing": 1042,
      "Ġ×ĳ×ķ": 1043,
      "Ġ×Ļ×ķ×ª×¨": 1044,
      "of": 1045,
      "×Ĵ×¨×¡×Ĳ×ķ×ª": 1046,
      "Ġ×Ļ×Ķ": 1047,
      "×Ĳ×Ļ×Ŀ": 1048,
      "Ġ×ĳ×ŀ×©": 1049,
      "×ĵ×Ĵ×ľ": 1050,
      "×¢×Ķ": 1051,
      "Ġ×ŀ×¡×¤×¨": 1052,
      "ol": 1053,
      "ref": 1054,
      "Ġ×ķ×Ķ×Ļ×ª×¨×Ļ×Ŀ": 1055,
      "yle": 1056,
      "×Ļ×¥": 1057,
      "Ġ×Ĳ×Ļ×ł": 1058,
      ".com": 1059,
      "×ĳ×©×ł×ª": 1060,
      "|×Ĵ×¨×¡×Ĳ×ķ×ª": 1061,
      "|×Ĳ×Ļ×©×ķ×¨×Ļ×Ŀ": 1062,
      "Ġb": 1063,
      "style": 1064,
      "×ĳ×ķ×ĵ": 1065,
      "×Ļ×©×¨×Ĳ×ľ": 1066,
      "Ġ×Ķ×Ĺ×ľ": 1067,
      "ign": 1068,
      "Ġ×©×¢": 1069,
      "×ķ×ĳ×¨": 1070,
      "×Ļ×Ļ×Ł": 1071,
      "Ġ×Ļ×ĵ": 1072,
      "to": 1073,
      "×Ļ×ŀ×Ķ": 1074,
      "Ġ×Ĵ×¨": 1075,
      "Ġ×©×ł×Ļ": 1076,
      "Ġ×Ľ×ª": 1077,
      "Ġ×©×ľ×ķ": 1078,
      "100": 1079,
      "ik": 1080,
      "Ġ×ĳ×©×¤×ª": 1081,
      "000": 1082,
      "×ķ×¨×Ļ×Ķ": 1083,
      "Ġ×Ķ×ľ": 1084,
      "col": 1085,
      "×ĳ×ł×Ļ×ª": 1086,
      "|×Ļ×ķ×¦×¨": 1087,
      "×Ļ×ĳ×¨×¡": 1088,
      "Ġ×ŀ×¨": 1089,
      "ab": 1090,
      "×ķ×ł×Ļ×ĳ×¨×¡": 1091,
      "Ġ×Ķ×¨×Ĳ×©×ķ×Ł": 1092,
      "Ġ×ľ×§": 1093,
      "Ġ×ŀ×Ļ": 1094,
      ".jpg": 1095,
      "×¦×¨": 1096,
      "as": 1097,
      "×ķ×¨×Ĵ": 1098,
      "ĠL": 1099,
      "align": 1100,
      "ĠD": 1101,
      "Ġ×Ķ×Ŀ": 1102,
      "Ġ×ķ×ł": 1103,
      "iv": 1104,
      "ad": 1105,
      "×ķ×ł×Ļ×ĳ×¨×¡×Ļ×ĺ": 1106,
      "Ġ×Ķ×Ļ×Ļ×ª×Ķ": 1107,
      "×¤×Ļ": 1108,
      "Ġstyle": 1109,
      "ĠF": 1110,
      "25": 1111,
      "Ġ×Ķ×¡×¤×¨": 1112,
      "ir": 1113,
      "Ġ×§×ĳ": 1114,
      "×ľ×ķ×ª": 1115,
      "×Ļ×ķ×ª×¨": 1116,
      "×¨×ķ": 1117,
      "×ŀ×¡": 1118,
      "×ĸ×Ķ": 1119,
      "×Ĳ×ķ": 1120,
      "×ķ×ł×ª": 1121,
      "Ö¼": 1122,
      "×ŀ×Ļ×ª": 1123,
      "Ġn": 1124,
      "×ŀ×ķ×ĵ": 1125,
      ">{{": 1126,
      "and": 1127,
      "×ķ×¨×Ļ": 1128,
      "Ġ×ł×©": 1129,
      "×Ĵ×Ķ": 1130,
      "30": 1131,
      "Ġ×ĳ×ŀ×Ķ": 1132,
      "195": 1133,
      "×ķ×ł×Ļ×ª": 1134,
      "Ġ×ĸ×ķ": 1135,
      "×§×ľ": 1136,
      "Ġ×ľ×Ľ": 1137,
      "Ġ×Ķ×¨×ĳ": 1138,
      "Ġ×ĳ×Ļ×ł": 1139,
      "idth": 1140,
      "Ġ×ľ×ķ": 1141,
      "}}}}": 1142,
      "|}": 1143,
      "×§×ķ×ĳ": 1144,
      "ag": 1145,
      "\".": 1146,
      "×ĵ×©": 1147,
      "Ġ×ķ×Ľ": 1148,
      "×Ļ×¨×ª": 1149,
      "×Ĺ×§×Ł": 1150,
      "ĠI": 1151,
      "×ķ×ľ×ķ×Ĵ": 1152,
      "×¤×Ļ×Ŀ": 1153,
      "×Ļ×ł×Ļ": 1154,
      "-s": 1155,
      "{|": 1156,
      "×ķ×¢×ĵ": 1157,
      "Ġ×Ķ×Ļ×ķ": 1158,
      "×Ļ×ª×ķ×ĳ": 1159,
      "Ġ×Ĳ×©×¨": 1160,
      "Ġof": 1161,
      "×ķ×Ļ×ķ×ª": 1162,
      "×§×Ļ×Ŀ": 1163,
      "Ġ×ĳ×Ļ×ķ×ª×¨": 1164,
      "×¨×ķ×ª": 1165,
      "×ĵ×ķ×ľ": 1166,
      "×Ļ×ŀ×¤": 1167,
      "×§×ĺ": 1168,
      "Ġ×¢×¦": 1169,
      "×Ļ×¨×Ļ×Ŀ": 1170,
      "×ķ×ĵ×Ļ": 1171,
      "×Ļ×ł×Ĵ": 1172,
      "Ġc": 1173,
      "ĠH": 1174,
      "×Ľ×ķ×ª": 1175,
      "Ġ×©×Ĳ": 1176,
      "ĠG": 1177,
      "×¦×Ķ": 1178,
      "|×ª×Ļ×Ĳ×ķ×¨": 1179,
      "Ġ×ª×ĳ×ł×Ļ×ª": 1180,
      "×Ļ×©×ķ×¨": 1181,
      "ĠĊĊ": 1182,
      "×Ĳ×Ł": 1183,
      "ss": 1184,
      "Ġ×Ķ×ŀ×ĵ": 1185,
      "×Ļ×©×Ķ": 1186,
      "Ġ×ŀ×Ļ×ľ": 1187,
      "×Ļ×§×¨": 1188,
      "×Ļ×¤×ķ×ª": 1189,
      "ew": 1190,
      "Ġ×Ķ×ŀ×Ĺ": 1191,
      "×Ļ×ĳ×Ķ": 1192,
      "×ķ×§×ĺ": 1193,
      "×ĸ×¨": 1194,
      "Ġ×Ĳ×Ĺ×ĵ": 1195,
      "×ŀ×§": 1196,
      "Ġ<": 1197,
      "lo": 1198,
      "×ľ×Ļ×Ķ": 1199,
      "Ġ×ľ×ł": 1200,
      "Ġ×Ĳ×ĵ": 1201,
      "×§×¡": 1202,
      "193": 1203,
      "×ķ×ŀ×Ķ": 1204,
      "×ŀ×ĺ": 1205,
      "×ĵ×ª": 1206,
      "22": 1207,
      "Ġ×Ľ×ŀ×ķ": 1208,
      "×Ķ×ľ": 1209,
      "Ġ×Ķ×¢×Ļ×¨": 1210,
      "the": 1211,
      "Ġ×Ĳ×¨×¦×ķ×ª": 1212,
      "Ġ×ĳ×ĺ": 1213,
      "×Ļ×¢×Ķ": 1214,
      "Ġ×Ķ×¢×ķ×ľ×Ŀ": 1215,
      "×ĵ×ķ×ª": 1216,
      "×ķ×¡×£": 1217,
      "ra": 1218,
      "×¤×ķ×ª": 1219,
      "×ľ×Ĺ×ŀ×ª": 1220,
      "Ġ×ľ×¤×ł×Ļ": 1221,
      "Ġ×ŀ×ŀ": 1222,
      "×Ļ×Ķ×Ŀ": 1223,
      "×¢×ľ": 1224,
      "Ġ×ĳ×ŀ×¨": 1225,
      "Ġ×Ĺ×ľ×§": 1226,
      "×Ļ×ł×ķ×ª": 1227,
      "×Ļ×Ĵ×Ķ": 1228,
      "×§×Ļ": 1229,
      "Ġ×Ļ×Ĺ": 1230,
      "×Ļ×ķ×ķ×Ł": 1231,
      "Ġ×ľ×ŀ": 1232,
      "×ŀ×Ľ": 1233,
      "×Ļ×Ĳ×ľ": 1234,
      "eb": 1235,
      "×Ļ×ł×Ļ×Ŀ": 1236,
      "×ķ×ŀ×Ļ×ª": 1237,
      "Ġ×ł×§": 1238,
      "ĠW": 1239,
      "ord": 1240,
      "ame": 1241,
      "×ª×ŀ×©": 1242,
      "×Ļ×ľ×ª": 1243,
      "im": 1244,
      "Ġ×ķ×Ĺ": 1245,
      "Ġ×©×ł×Ķ": 1246,
      "ĠĠĠĠ": 1247,
      "×ķ×¨×ĵ": 1248,
      "Ġ×ĳ×ŀ×¡": 1249,
      "%\"": 1250,
      "em": 1251,
      "×¢×Ļ×Ŀ": 1252,
      "×ķ×ĵ×Ļ×Ŀ": 1253,
      "×Ļ×ł×ķ": 1254,
      "ĠN": 1255,
      "×ł×ķ×¢": 1256,
      "×Ļ×ŀ×ķ×©": 1257,
      "Ö°": 1258,
      "ia": 1259,
      "no": 1260,
      "×¤×¡": 1261,
      "×Ľ×¨": 1262,
      "Ġ×ľ×Ĵ": 1263,
      "Ġ×ĳ×Ł": 1264,
      "Ġ×©×ł×Ļ×Ŀ": 1265,
      "Ġ×ŀ×ĸ": 1266,
      "wik": 1267,
      "Ġ×ķ×ľ×Ĳ": 1268,
      "×Ļ×ľ×ķ×ª": 1269,
      "Ġ×ł×¤": 1270,
      "Ġ×ľ×ŀ×©": 1271,
      "×¨×¤×ª": 1272,
      "Ġ×Ĳ×ķ×ª×ķ": 1273,
      "Ġ×ĳ×ł×Ļ": 1274,
      "Ġ×§×ĺ": 1275,
      "Ġ×©×ľ×Ķ": 1276,
      "44": 1277,
      "×ĺ×Ĺ": 1278,
      "om": 1279,
      "Ġ×¨×§": 1280,
      "×Ļ×©×Ļ": 1281,
      "Ġ×ľ×¨": 1282,
      "×ķ×ķ×Ķ": 1283,
      "Ġ×Ĳ×ķ×¨×ļ": 1284,
      "×©×Ļ": 1285,
      "×ĳ×ľ": 1286,
      "ate": 1287,
      "Ġ×ŀ×Ľ×Ł": 1288,
      "all": 1289,
      "Ġ×ĳ×ŀ×Ķ×ľ×ļ": 1290,
      "×ķ×¦×Ĳ×Ķ": 1291,
      "Ġ×Ķ×Ļ": 1292,
      "Ġ×ĳ×ĳ×Ļ×ª": 1293,
      "24": 1294,
      "21": 1295,
      "Ġ×Ľ×Ĳ×©×¨": 1296,
      "Ö¸": 1297,
      "Ġ×Ľ×ĵ×Ļ": 1298,
      "Ġ×¤×Ļ": 1299,
      "50": 1300,
      "×ª×Ķ": 1301,
      "Ġs": 1302,
      "Ġ×Ĳ×Ļ×¨": 1303,
      "×¦×Ļ": 1304,
      "×ĳ×ĵ": 1305,
      "lu": 1306,
      "×ĺ×Ļ×¤": 1307,
      "Ġ×ķ×Ĵ": 1308,
      "×ķ×ĵ×Ķ": 1309,
      "ĠE": 1310,
      "×ĵ×¨×Ķ": 1311,
      "Ġ×ª×§": 1312,
      "Ġ×¢×ĳ×¨": 1313,
      "×ĳ×¡": 1314,
      "Ġp": 1315,
      "tr": 1316,
      "×¤×ķ×¨×ĺ": 1317,
      "×ķ×ł×ĵ": 1318,
      "Ġwidth": 1319,
      "\"×ľ": 1320,
      "×¤×¨×¡": 1321,
      "23": 1322,
      "×Ļ×Ļ×ľ": 1323,
      "Ġd": 1324,
      "%D": 1325,
      "×ķ×ķ×Ļ×ĸ": 1326,
      "×Ľ×ł": 1327,
      "26": 1328,
      "×ľ×ĳ×ķ×Ŀ": 1329,
      "ter": 1330,
      "×ķ×Ľ×ľ": 1331,
      "Ġ×ĳ×ŀ×Ĳ": 1332,
      "×ķ×ľ×Ļ×Ŀ": 1333,
      "te": 1334,
      "Ġ×ľ×ŀ×ĵ": 1335,
      "Ġ×Ķ×ŀ×¢": 1336,
      "Ġ×ł×¢": 1337,
      "Ġ×Ķ×¨×Ĳ×©×ķ×ł×Ķ": 1338,
      "Ġ×§×ľ": 1339,
      "×§×ķ×ª": 1340,
      "×Ļ×ĵ×Ļ": 1341,
      "Ġ×©×Ļ×Ĺ": 1342,
      "Ġ×Ľ×ļ": 1343,
      "×¨×Ľ×ĸ": 1344,
      "×ķ×Ĵ×ķ×¡×ĺ": 1345,
      "||+": 1346,
      "×©×ķ": 1347,
      "×Ļ×£": 1348,
      "×ķ×ŀ×¨": 1349,
      "×¡×ľ": 1350,
      "×Ļ×Ļ": 1351,
      "×ķ×ł×Ļ×ĳ×¨×¡×Ļ×ĺ×ª": 1352,
      "×ª×Ĺ": 1353,
      "×ķ×Ĳ×Ķ": 1354,
      "Ġ×ł×Ĺ": 1355,
      "enter": 1356,
      "×§×ķ×ĳ×¥": 1357,
      "×©×ĳ": 1358,
      "um": 1359,
      "Ġ×Ľ×Ł": 1360,
      "191": 1361,
      "×ķ×ª×¨×ª": 1362,
      "90": 1363,
      "Ġ×Ĳ×ľ×ĳ": 1364,
      "×ķ×ĳ×ľ": 1365,
      "×¤×ľ": 1366,
      "×Ļ×ĳ×ľ": 1367,
      "Ġ×ĳ×ŀ×Ĺ": 1368,
      "×¨×¥": 1369,
      "×ķ×¡×ĺ×¨": 1370,
      "×ķ×¨×¡": 1371,
      "192": 1372,
      "Ġ×ľ×Ļ": 1373,
      "27": 1374,
      "Ġname": 1375,
      "Ġ×Ķ×©×ľ": 1376,
      "28": 1377,
      "Ġ×Ķ×ŀ×§": 1378,
      "Ġ×ŀ×ĺ×¨": 1379,
      "Ġ×ķ×¡": 1380,
      "ĊĊĊĊ": 1381,
      "span": 1382,
      "Ġ×¡×ĺ": 1383,
      "×Ļ×ł×ª": 1384,
      "org": 1385,
      "ite": 1386,
      "×Ĵ×ķ×¨": 1387,
      "Ġthe": 1388,
      "Ġ×Ķ×ŀ×Ĳ×Ķ": 1389,
      "Ġ×Ļ×ĵ×ķ×¢": 1390,
      "×¦×ª": 1391,
      "Ġ×ĳ×ª×Ĺ": 1392,
      "×¨×Ĳ×Ķ": 1393,
      "×¨×§": 1394,
      "Ġ×Ķ×ŀ×¤": 1395,
      "|×ŀ": 1396,
      "Ö·": 1397,
      "Ġ×Ĳ×¡": 1398,
      "Ġ×ł×ķ×ľ×ĵ": 1399,
      "Ġ×ĳ×ŀ×ĵ": 1400,
      "×ŀ×ł×Ļ×Ķ": 1401,
      "×Ĺ×ķ×ª": 1402,
      "Ġ×ŀ×ľ": 1403,
      "×ķ×¤×Ł": 1404,
      "}}}": 1405,
      "Ġ×Ľ×©×Ĺ×§×Ł": 1406,
      "×¢×¨": 1407,
      "×Ļ×ł×Ĵ×ľ": 1408,
      "×¨×Ļ×Ķ": 1409,
      "ov": 1410,
      "×ķ×©×Ķ": 1411,
      "ont": 1412,
      "Ġ×ª×ľ": 1413,
      "color": 1414,
      "×ķ×ŀ×Ļ×Ŀ": 1415,
      "×ķ×ķ×ª": 1416,
      "Ġ×Ķ×ŀ×ª": 1417,
      "ĠâĢĵ": 1418,
      "able": 1419,
      "×©×ķ×ª": 1420,
      "Ġ×Ľ×ķ×ľ": 1421,
      "×ķ×¨×§": 1422,
      "=https": 1423,
      "Ġ×¤×¨×¡": 1424,
      "×¢×Ŀ": 1425,
      "×¢×Ļ": 1426,
      "×§×Ļ×©×ķ×¨": 1427,
      "Ġ×¤×ĺ": 1428,
      "ation": 1429,
      "×ķ×ľ×ĺ": 1430,
      "×Ļ×¤×Ķ": 1431,
      "ou": 1432,
      "Ġ×ľ×Ķ×ª": 1433,
      "Ġ×Ĵ×ľ": 1434,
      "×ĳ×ķ": 1435,
      "×ķ×ĵ×Ŀ": 1436,
      "×Ĺ×ľ": 1437,
      "×ķ×©×ľ×Ļ×Ŀ": 1438,
      "und": 1439,
      "×ª×ª": 1440,
      "Ġf": 1441,
      "Ġ×ĳ×ŀ×§×ķ×Ŀ": 1442,
      "×ŀ×Ļ×ĵ": 1443,
      "Ġ×ľ×ľ": 1444,
      "oo": 1445,
      "×ķ×ŀ×ł": 1446,
      "Ġ×ľ×ĵ": 1447,
      "×Ļ×©×ķ×ĳ": 1448,
      "Ö´": 1449,
      "Ġ×¤×ľ": 1450,
      "FF": 1451,
      "|×¡×ķ×Ĵ": 1452,
      "Ġ×Ķ×©×ł×Ļ×Ļ×Ķ": 1453,
      "×¤×ĺ×ŀ×ĳ×¨": 1454,
      "Ġ×Ķ×ŀ×¡": 1455,
      "Ġ×ł×Ļ×ª": 1456,
      "29": 1457,
      "center": 1458,
      "×¦×ľ": 1459,
      "×ķ×§×ĺ×ķ×ĳ×¨": 1460,
      "=×Ķ": 1461,
      "Ġ×Ĳ×Ŀ": 1462,
      "40": 1463,
      "Ġ×Ĳ×Ĺ×¨×Ļ": 1464,
      "×ĵ×¨×ª": 1465,
      "Ġ×Ĵ×ĳ": 1466,
      "inc": 1467,
      "×ķ×¦×ª": 1468,
      "×©×ĺ": 1469,
      "}}}}ĊĊ": 1470,
      "×Ļ×ĺ×Ļ": 1471,
      "Ġ×Ĳ×Ĺ": 1472,
      ").ĊĊ": 1473,
      "Ġ×ŀ×ķ×ĸ": 1474,
      "ĠO": 1475,
      "Ġ×Ļ×ľ": 1476,
      ">Ċ": 1477,
      "Ġ×Ļ×¨": 1478,
      "|-ĊĊ": 1479,
      "Ġ×Ķ×¡×¨×ĺ": 1480,
      "art": 1481,
      "iz": 1482,
      "×¢×Ļ×¨": 1483,
      "Ġ×¨×ĳ×Ļ×Ŀ": 1484,
      "Ġ×ĸ×Ĳ×ª": 1485,
      "Ġ×ĳ×©×Ŀ": 1486,
      "×Ļ×Ļ×¡": 1487,
      "×Ļ×ĳ×ª": 1488,
      "|×Ĵ": 1489,
      "Ġ×ª×¤×§×Ļ×ĵ": 1490,
      "×Ļ×ŀ×©": 1491,
      "Ġ/": 1492,
      ".org": 1493,
      "×©×ľ": 1494,
      "×©×Ŀ": 1495,
      "Ġ×ķ×ª": 1496,
      "Ġ×ª×Ĺ": 1497,
      "×Ļ×Ľ×Ķ": 1498,
      "×ľ×ķ×ķ×Ļ×ĸ": 1499,
      "Ġ×Ĳ×ĸ": 1500,
      "×¢×ĵ": 1501,
      "×Ľ×ĵ×ķ×¨×Ĵ×ľ": 1502,
      "Ġ×ĳ×ĵ×¨": 1503,
      "ight": 1504,
      "ist": 1505,
      "×ĳ×¨×Ļ×ª": 1506,
      "=×Ĳ": 1507,
      "Ġ×Ļ×Ľ": 1508,
      "×Ĵ×Ł": 1509,
      "×ķ×¨×ķ×ª": 1510,
      "×¡×ķ×Ł": 1511,
      "ack": 1512,
      "Ġ×ĳ×ĸ": 1513,
      "Ġ×ľ×Ļ×ŀ": 1514,
      "Ġ×§×ķ×ľ": 1515,
      "Ġ×ľ×ŀ×¢": 1516,
      "×ķ×ĳ×ŀ×ĳ×¨": 1517,
      "Ġ×©×ł×ª": 1518,
      "×ķ×Ľ×ł×Ļ×ª": 1519,
      "|×Ĳ×ķ×¨×ļ": 1520,
      "×¨×ĳ×ķ×ª": 1521,
      "lass": 1522,
      "Ġ×©×¨": 1523,
      "×Ĵ×ª": 1524,
      "}}<": 1525,
      "Ġ×¤×ķ×ľ": 1526,
      "×ĺ×¨×ł×ĺ": 1527,
      "\":": 1528,
      "\"×¨": 1529,
      "×Ļ×ĺ×Ķ": 1530,
      "Ġ×Ĳ×ĳ×Ļ×ĳ": 1531,
      "Ġ×¡×¨×ĺ": 1532,
      "Ġ×ĸ×Ľ×Ķ": 1533,
      "×ĺ×Ļ×¤×ª": 1534,
      "×ľ×ķ×ķ×Ļ×ĸ×Ļ×Ķ": 1535,
      "ec": 1536,
      "ot": 1537,
      "\"×ŀ": 1538,
      "×§×ĳ×ķ×ª": 1539,
      "Ġ×Ķ×ķ×§": 1540,
      "×¤×©×¨": 1541,
      "Ġ×ª×ŀ×ķ×ł×Ķ": 1542,
      "×Ļ×Ļ×¨": 1543,
      "×Ķ×¨": 1544,
      "×Ĵ×¨×ª": 1545,
      "ub": 1546,
      "×ª×ŀ×ķ×ł×Ķ": 1547,
      "×ŀ×©×ļ": 1548,
      "×ķ×ŀ×ķ×ª": 1549,
      "Ġ×ł×ª": 1550,
      "×¨×Ľ×ª": 1551,
      "×¤×ķ×Ł": 1552,
      "×ķ×ĳ×ª": 1553,
      "×¦×Ļ×Ķ": 1554,
      "Ġ×ķ×ŀ": 1555,
      "×¦×ŀ×ĳ×¨": 1556,
      "×¤×¨×Ļ×ľ": 1557,
      "ĠJ": 1558,
      "×Ļ×ĳ×ķ×¨": 1559,
      "order": 1560,
      "Ġ×©×Ĺ": 1561,
      "33": 1562,
      "ul": 1563,
      "Ġ×Ĺ×©": 1564,
      "×ķ×ĵ×ķ×ª": 1565,
      "Ġ×Ķ×©×Ļ×¨": 1566,
      "×ķ×ľ×ķ×Ĵ×Ļ×Ķ": 1567,
      "×ľ×Ļ×ª": 1568,
      "×ķ×Ľ×ľ×ķ×¡": 1569,
      "×Ĵ×ķ×Ł": 1570,
      "×©×Ļ×¨": 1571,
      "Ġ×ŀ×ŀ×©": 1572,
      "|×Ľ×Ļ×ª×ķ×ĳ": 1573,
      "×ķ×¤×ª": 1574,
      "×Ĳ×¡": 1575,
      "×ŀ×ł×ķ×ª": 1576,
      "Ġ''": 1577,
      "×§×ķ": 1578,
      "Ġ×Ĳ×ķ×¨": 1579,
      "Ġ×ł×¡": 1580,
      "×Ļ×Ĳ×Ķ": 1581,
      "ap": 1582,
      "×¤×ķ": 1583,
      "Ġ×ĳ×Ļ×ķ×ľ×Ļ": 1584,
      "lude": 1585,
      "Ġ×ł×Ľ": 1586,
      "Ġ×¨×ķ×ĳ": 1587,
      "×¤×Ĺ×ª": 1588,
      "×Ļ×ł×ķ×Ļ": 1589,
      "Ġ×Ľ×ª×ĳ": 1590,
      "Ġ×¢×ĳ×ķ×¨": 1591,
      "×Ļ×Ĺ×¡": 1592,
      "×ķ×ķ×Ļ": 1593,
      "×Ļ×ŀ×ª": 1594,
      "include": 1595,
      "Ġ×Ķ×ķ×¦": 1596,
      "Ġ×Ĺ×ĳ×¨×ª": 1597,
      "Ġ×Ĳ×ķ×ª×Ķ": 1598,
      "Ġ×ĳ×Ĳ×ķ×Ĵ×ķ×¡×ĺ": 1599,
      "Ġ×Ķ×Ĳ×Ĺ×¨": 1600,
      "Ġ×ª×Ĳ×¨×Ļ×ļ": 1601,
      "ay": 1602,
      "Ġ×Ķ×§×ĳ": 1603,
      "×ķ×Ĺ×ķ×ª": 1604,
      "80": 1605,
      "×Ļ×ľ×Ļ×Ŀ": 1606,
      "×Ľ×ķ": 1607,
      "×ĵ×ľ": 1608,
      "Ġ×ł×ŀ×¦": 1609,
      "60": 1610,
      "×ķ×¤×Ļ": 1611,
      "Ġ×ĳ×ŀ×Ĳ×Ļ": 1612,
      "Ġ×Ľ×Ķ": 1613,
      ".p": 1614,
      "Ġ×ĳ×Ļ×ł×ķ×Ĳ×¨": 1615,
      "×ŀ×¨×Ļ×§": 1616,
      "Ġ×ŀ×ľ×Ĺ×ŀ×ª": 1617,
      "Ġ×Ķ×ŀ×¦": 1618,
      "|×ŀ×¤": 1619,
      "×Ĺ×ķ×Ł": 1620,
      "Ġ×ĳ×Ļ×©×¨×Ĳ×ľ": 1621,
      "ive": 1622,
      "|[": 1623,
      "×Ĵ×ľ×Ļ×ª": 1624,
      "Ġ×ĳ×¡×¤×ĺ×ŀ×ĳ×¨": 1625,
      "×Ľ×ª×ĳ": 1626,
      "×Ļ×ł×ĺ": 1627,
      "Ġ×ķ×¨": 1628,
      "=×Ľ×Ł": 1629,
      ".<": 1630,
      "×Ļ×§×ĺ": 1631,
      "×Ĳ×Ŀ": 1632,
      "×ĳ×¨×ķ×Ĳ×¨": 1633,
      "|×ł": 1634,
      "ers": 1635,
      "Ġ×ŀ×©×ª×ŀ×©": 1636,
      "Ġ×ľ×¨×Ĳ×©": 1637,
      "Ġ×ĳ×¤×¨": 1638,
      "Ġclass": 1639,
      "Ġ×Ĳ×ľ×ĳ×ķ×Ŀ": 1640,
      "sm": 1641,
      "×ķ×¢×ľ": 1642,
      "|×Ĳ×ª×¨": 1643,
      ".ĊĊĊ": 1644,
      "row": 1645,
      "×Ļ×¤×ķ×¨": 1646,
      "×ķ×Ĵ×¨": 1647,
      "ine": 1648,
      "Ġ×ĳ×¢×Ļ×¨": 1649,
      "Ġ×ľ×ĺ": 1650,
      "Ġ×ĳ×Ĳ×ķ×§×ĺ×ķ×ĳ×¨": 1651,
      "MG": 1652,
      "Ġ×ĳ×Ļ×ķ×ł×Ļ": 1653,
      "Ġ×Ķ×ľ×Ĳ": 1654,
      "×Ļ×ŀ×Ļ×Ŀ": 1655,
      "×ĳ×¨×ª": 1656,
      "Ġ×Ĳ×Ĺ×ª": 1657,
      "×ķ×ł×ĺ": 1658,
      "×¦×¢": 1659,
      "Ġ×Ĳ×£": 1660,
      "×Ļ×ĺ×Ļ×Ŀ": 1661,
      "Ġ×Ķ×ŀ×Ľ": 1662,
      "31": 1663,
      "Ġ×Ľ×ł": 1664,
      "!--": 1665,
      "ĸ×¨×Ĺ": 1666,
      "Ġ×ĳ×ŀ×§": 1667,
      "×¦×ķ×¢": 1668,
      "×Ĳ×ĺ": 1669,
      "ort": 1670,
      "Ġ×ĵ×¨": 1671,
      "Ġ×Ķ×©×ł×Ļ×Ŀ": 1672,
      "Ġ×©×©": 1673,
      "}}{{": 1674,
      "×Ļ×ĵ×ķ×ª": 1675,
      "Ġ×ķ×¤": 1676,
      "Ġ×ł×Ļ×ª×Ł": 1677,
      "Ġ×Ľ×ľ×ľ×Ļ": 1678,
      "Ġv": 1679,
      "Ġ×ł×Ĵ×ĵ": 1680,
      "×ĵ×Ŀ": 1681,
      "ĠÐ": 1682,
      "Ġ×ĳ×©×ľ": 1683,
      "×ķ×¢×¨": 1684,
      "Ġ×ĳ×Ľ×ľ": 1685,
      "Ġ×¨×©": 1686,
      "×ľ×Ĺ×ŀ×Ķ": 1687,
      "×ĳ×ķ×ª": 1688,
      "Ġ×©×ŀ": 1689,
      "|×ŀ×ĵ": 1690,
      "oc": 1691,
      "×¨×ĳ×Ļ×ª": 1692,
      "×¨×Ľ×Ķ": 1693,
      "Ġ×©×ľ×Ĳ": 1694,
      "×ķ×Ĺ×ĳ": 1695,
      "×ĵ×Ļ×Ķ": 1696,
      "'×Ļ": 1697,
      "×ķ×ľ×ķ×ª": 1698,
      "|}}}": 1699,
      "×ĳ×¨×Ļ×Ŀ": 1700,
      "pe": 1701,
      "Ġ×Ķ×ŀ×ĳ": 1702,
      "Ġ×Ķ×Ĵ×¨": 1703,
      "Ġ×ĳ×ª×§": 1704,
      "arch": 1705,
      "Ġ×Ķ×ĳ×Ĳ": 1706,
      "Ġ×ĳ×ł×ķ×ĳ×ŀ×ĳ×¨": 1707,
      "Ġ×¡×ķ×Ĵ": 1708,
      "Ġ×Ľ×¡": 1709,
      "tit": 1710,
      "Ġ×ĸ×ŀ×Ł": 1711,
      "date": 1712,
      "×ł×¨": 1713,
      "Ġ×Ķ×Ľ×ľ": 1714,
      "Ġ×ŀ×ķ×¨": 1715,
      "Ġ×ĳ×ŀ×¨×¥": 1716,
      "Ġ×Ĺ×Ļ": 1717,
      "ĠK": 1718,
      "Ġ×ĺ×¨": 1719,
      "gro": 1720,
      "Ġ×ĳ×Ĳ×ķ×¤×Ł": 1721,
      "×ķ×Ľ×Ķ": 1722,
      "Ġ×Ľ×Ĺ": 1723,
      "×¤×Ĺ×Ķ": 1724,
      "×Ľ×¡": 1725,
      "Ġ×ŀ×©×Ĺ×§": 1726,
      "34": 1727,
      "×ŀ×ł×Ķ": 1728,
      "Ġ×©×Ľ": 1729,
      "×Ļ×¡×Ķ": 1730,
      "Ġ\\": 1731,
      "Ġ×©×ł×ķ×ª": 1732,
      "ce": 1733,
      "×ķ×Ĺ×¨": 1734,
      "×ķ×Ĵ×ķ": 1735,
      "×ķ×¡×Ļ×Ķ": 1736,
      "Ġ×ĵ×Ļ": 1737,
      "Ġm": 1738,
      "|×¨": 1739,
      "35": 1740,
      "70": 1741,
      "Ġ×Ĳ×ķ×ª": 1742,
      "×ł×ķ×Ł": 1743,
      "×Ĳ×ĳ": 1744,
      "itable": 1745,
      "190": 1746,
      "×ĳ×Ļ×¢": 1747,
      "×§×ĳ×ķ×¦×Ķ": 1748,
      "×ł×ĵ×¨": 1749,
      "ff": 1750,
      "Ġ×Ĵ×ĵ×ķ×ľ": 1751,
      ".il": 1752,
      "×Ļ×ĳ×ķ×ª": 1753,
      "×Ļ×ľ×ķ": 1754,
      "wikitable": 1755,
      "Ġ×Ķ×ŀ×ł": 1756,
      "×ķ×ľ×¨": 1757,
      "title": 1758,
      "×ľ×ł×ĵ": 1759,
      "Ġ×©×ķ×ł×Ļ×Ŀ": 1760,
      "Ġ×ŀ×ķ×ł×Ķ": 1761,
      "×ł×Ļ×ķ×ª": 1762,
      "Ġ×¡×Ļ": 1763,
      "×Ĺ×¨×ķ×ª": 1764,
      "The": 1765,
      "×Ĵ×Ŀ": 1766,
      "Ġ×ķ×Ķ×ķ×Ĳ": 1767,
      "={{{": 1768,
      "×Ļ×Ĵ×ª": 1769,
      "×ĵ×ķ": 1770,
      "×Ľ×ĸ": 1771,
      "×ķ×ŀ×ĺ": 1772,
      "Ġ×ķ×§": 1773,
      "Ġ×ĳ×Ĳ×ŀ×¦": 1774,
      "small": 1775,
      "Ġ×ĳ×ĵ×¦×ŀ×ĳ×¨": 1776,
      "×¤×ķ×¨": 1777,
      "Ġ×ĳ×Ĳ×¨": 1778,
      "\".ĊĊ": 1779,
      "ess": 1780,
      "×ķ×Ĳ×ľ": 1781,
      "×¡×¨×ĺ": 1782,
      "ie": 1783,
      "×¡×ª": 1784,
      "ĠV": 1785,
      "ĉĉ": 1786,
      "Ġ×ĳ×Ĳ×¤×¨×Ļ×ľ": 1787,
      "Ġ×Ĳ×Ļ×ł×ĺ×¨×ł×ĺ": 1788,
      "!--Ċ": 1789,
      "Ġ×Ĺ×ª": 1790,
      "×ł×Ĵ": 1791,
      "ŀ×©": 1792,
      "×Ļ×ĸ×Ŀ": 1793,
      "Ġ×ŀ×ľ×Ĳ": 1794,
      "Ġ×Ļ×Ĺ×ĵ": 1795,
      "Ġ×ĳ×Ľ×ĵ×ķ×¨×Ĵ×ľ": 1796,
      "|×¦": 1797,
      "-->{{": 1798,
      "×ķ×¢×ĵ×ķ×Ł": 1799,
      "Ġborder": 1800,
      "Ö¹": 1801,
      "Ġ×Ķ×ķ×¢": 1802,
      "Ġ×Ķ×©×ª×ª": 1803,
      "ews": 1804,
      "ize": 1805,
      "×ķ×ĳ×Ļ": 1806,
      "Ġin": 1807,
      "×¡×Ļ": 1808,
      "Ġ×ĳ×ª×¤×§×Ļ×ĵ": 1809,
      "ground": 1810,
      "×Ļ×ķ×ķ": 1811,
      "×ķ×¦×ķ×ª": 1812,
      "}}<!--Ċ": 1813,
      ".s": 1814,
      "}}.ĊĊ": 1815,
      "-×Ĳ": 1816,
      "Ġ×¢×¨×ļ": 1817,
      "|×¢": 1818,
      "Ð°": 1819,
      "Ġ×Ĺ×ĸ": 1820,
      "Ġ×ł×Ķ": 1821,
      "Ġ×ł×ĳ×Ĺ×¨×ª": 1822,
      "|×ª×ŀ×ķ×ł×Ķ": 1823,
      "ackground": 1824,
      "Ġ×ŀ×ķ×¡": 1825,
      "Ġ×©×Ķ×ķ×Ĳ": 1826,
      "×ĳ×Ĺ": 1827,
      "Ġ×©×Ļ×ŀ×©": 1828,
      "×Ļ×ľ×Ļ": 1829,
      "×Ļ×Ķ×Ł": 1830,
      "ang": 1831,
      "×ķ×¤×¨": 1832,
      "×ķ×ĳ×ķ×ª": 1833,
      "Ġ×Ĺ×Ļ×Ļ×Ŀ": 1834,
      "Ġ×Ķ×Ĵ×Ļ×¢": 1835,
      "×¦×Ĺ": 1836,
      "×¨×ĳ×Ļ": 1837,
      "×ķ×ł×¡": 1838,
      "url": 1839,
      "×Ķ×Ĳ": 1840,
      "Ġ×¤×ĺ×Ļ×¨×Ķ": 1841,
      "×ľ×Ļ×Ĺ": 1842,
      "op": 1843,
      "×ķ×ķ×Ļ×¨": 1844,
      "Ġ×ĳ×¢×Ļ×§×¨": 1845,
      "×¢×ĺ×Ļ×¤×ª": 1846,
      "×ľ×Ĳ×Ĺ×¨": 1847,
      "Ð¾": 1848,
      "Ġ×Ķ×¤×¨": 1849,
      "×§×ª": 1850,
      "MGH": 1851,
      "br": 1852,
      "×ķ×ł×Ĵ×¨": 1853,
      "×ķ×ĵ×ķ": 1854,
      "Ġ×ĳ×ŀ×¡×Ĵ×¨×ª": 1855,
      "Ġ×ŀ×§×ķ×Ŀ": 1856,
      "Ġ×Ľ×¨": 1857,
      "×Ļ×§×ķ": 1858,
      "Ġ×ĳ×¤×ĳ×¨×ķ×Ĳ×¨": 1859,
      "=\":": 1860,
      "×ķ×ŀ×Ĳ": 1861,
      "Ġ×ĵ×§×ķ×ª": 1862,
      "45": 1863,
      "×Ļ×¡×ĺ×ķ×¨×Ļ×Ķ": 1864,
      "ip": 1865,
      "×ŀ×ł×Ļ×Ŀ": 1866,
      "Ġ×Ķ×Ĵ×ĵ×ķ×ľ": 1867,
      "os": 1868,
      "×¡×§×Ļ": 1869,
      "Ö¾": 1870,
      "×ķ×ĵ×Ļ×ª": 1871,
      "×ĳ×Ļ×ª": 1872,
      "Ġand": 1873,
      ":×Ķ": 1874,
      "Ġ×ķ×Ľ×Ł": 1875,
      "Ġ×Ķ×ĳ×Ľ": 1876,
      ";\"": 1877,
      "Ġ×Ķ×ŀ×ķ×¢": 1878,
      "×Ļ×ŀ×ķ×ª": 1879,
      "}}.": 1880,
      "Ġ×Ķ×§×ķ×ĵ×Ŀ": 1881,
      "Ġ×ŀ×ĵ×Ļ×ł×Ķ": 1882,
      "|×ŀ×ĵ×Ļ×ł×Ķ": 1883,
      "=ĊĊ": 1884,
      "ile": 1885,
      "Ġ×Ķ×Ļ×©": 1886,
      "×¢×©": 1887,
      "Ġ×Ķ×ª×Ĺ": 1888,
      "Ö¶": 1889,
      "Ġ×Ĳ×Ļ": 1890,
      "×ķ×¨×ķ": 1891,
      "font": 1892,
      "×Ļ×ł×Ļ×ª": 1893,
      "×ŀ×ŀ": 1894,
      "Ġ×ĳ×Ļ×¨": 1895,
      "Ġ×ª×Ĺ×ª": 1896,
      "Ġalign": 1897,
      "|×Ľ×ķ×ª×¨×ª": 1898,
      "Ġ×ł×ĳ×Ĺ×¨": 1899,
      "Ġ×ľ×Ķ×Ļ×ķ×ª": 1900,
      "Ġ×ł×Ļ×¦": 1901,
      "Ġ×Ľ×ľ×ľ": 1902,
      "Ġ×Ļ×¢": 1903,
      "×ķ×ŀ×ª": 1904,
      "Ġ×ŀ×Ļ×ľ×Ļ×ķ×Ł": 1905,
      "×Ļ×Ĳ×Ł": 1906,
      "Ġ×Ľ×Ļ×ª×ķ×ĳ": 1907,
      "ak": 1908,
      "noinclude": 1909,
      "99": 1910,
      "×¡×¤×¨": 1911,
      "-size": 1912,
      "Ġ×§×Ļ": 1913,
      "Ġ×ĳ×ł×ĳ×Ĺ×¨×ª": 1914,
      "×¨×Ľ×Ļ×Ŀ": 1915,
      "ut": 1916,
      "Ġ×ŀ×ķ×¦": 1917,
      "htm": 1918,
      "×ĳ×¨×Ļ": 1919,
      "×Ĵ×ķ": 1920,
      "×¡×Ķ": 1921,
      "Ġ×©×ľ×ĺ": 1922,
      "Ġ×ĳ×¢×ľ": 1923,
      "Ġ×ľ×ľ×Ĳ": 1924,
      "ĠĊĠĊ": 1925,
      "×Ļ×ĳ×¨": 1926,
      "|×Ľ×ª": 1927,
      "up": 1928,
      "Ġ×¨×ĳ×ķ×ª": 1929,
      "×ł×¡×ª": 1930,
      "Ġ×ľ×ĸ": 1931,
      "×ĳ×ĺ": 1932,
      "Ġ×Ķ×Ĳ×¨": 1933,
      "Ġ×Ľ×ķ×ľ×ľ": 1934,
      "Ġ×ĳ×¡×¨×ĺ": 1935,
      "×Ĳ×Ļ×ª": 1936,
      "background": 1937,
      "Ġ×ĵ×Ķ": 1938,
      "Ġ×ŀ×ł×Ķ": 1939,
      "Ġ×ķ×ŀ×©": 1940,
      "×Ĳ×¦": 1941,
      "if": 1942,
      "×©×Ļ×Ĳ": 1943,
      "=×ľ×Ĳ": 1944,
      "×ķ×ŀ×ľ": 1945,
      "×ĳ×ķ×ĵ×Ķ": 1946,
      "Ġ×ĳ×¢×§×ĳ×ķ×ª": 1947,
      "ow": 1948,
      "Ġ[": 1949,
      "od": 1950,
      "ĠThe": 1951,
      "×ķ×ľ×Ļ×ŀ×¤": 1952,
      "||+}}Ċ": 1953,
      "×Ļ×§×ķ×Ŀ": 1954,
      "×ķ×Ľ×ľ×ķ×¡×Ļ×Ļ×Ķ": 1955,
      "×ª×§": 1956,
      "Ġ×Ķ×ª×§": 1957,
      "×ľ×Ľ×Ķ": 1958,
      "}}</": 1959,
      "Ġ×¨×Ľ": 1960,
      "Ġ×©×Ķ×Ļ×Ķ": 1961,
      "Ġ×Ķ×Ĺ×ĳ×¨×Ķ": 1962,
      "Ġ'": 1963,
      "×ŀ×Ĵ": 1964,
      "age": 1965,
      "×ŀ×ķ×¨": 1966,
      "Ġ×Ĳ×Ĺ×¨×Ļ×Ŀ": 1967,
      "Ġ×ł×ķ×¡×¤×Ļ×Ŀ": 1968,
      "Ġ×¢×Ļ×¨": 1969,
      "×ĳ×¢×Ķ": 1970,
      "Ġ×Ĺ×ĵ×©": 1971,
      "×¡×¨": 1972,
      "Ġ×Ĺ×ľ": 1973,
      "Ġ×ŀ×ķ×¢": 1974,
      "×Ļ×ŀ×¤×¨×Ļ×Ķ": 1975,
      "Ġ×Ķ×§×ĳ×ķ×¦×Ķ": 1976,
      "×ķ×Ľ×Ł": 1977,
      "×Ļ×§×Ļ×¤": 1978,
      "55": 1979,
      "Ġ×ĳ×ŀ×©×ļ": 1980,
      "Ġ×¨×Ĺ": 1981,
      "av": 1982,
      "×ľ×Ĵ×Ķ": 1983,
      "×Ļ×¨×ķ×Ĵ": 1984,
      "38": 1985,
      "Ġ×Ķ×ĵ×¨": 1986,
      "×Ļ×¦×ķ×¨": 1987,
      "Ġ×ĳ×Ĳ×ķ×ª×Ķ": 1988,
      "Ġ×©×Ļ×¨": 1989,
      "ard": 1990,
      "ĠU": 1991,
      "×Ļ×Ĳ×ĺ×¨": 1992,
      "top": 1993,
      "×ķ×§×Ķ": 1994,
      "×ĳ×§": 1995,
      "×ľ×ĳ×ĵ": 1996,
      "ber": 1997,
      "Ġ×Ķ×ŀ×ĵ×Ļ×ł×Ķ": 1998,
      "Ġ/>": 1999,
      "Ġ×Ĳ×Ļ×©": 2000,
      "Ġ×ľ×¨×Ĳ×©×ķ×ł×Ķ": 2001,
      ".htm": 2002,
      "..": 2003,
      ",Ċ": 2004,
      "Ġ×Ĵ×Ļ×ľ": 2005,
      "Ġ×ĳ×Ĳ×ķ×ł×Ļ×ĳ×¨×¡×Ļ×ĺ×ª": 2006,
      "\"×Ĳ": 2007,
      "Ġ×Ķ×Ĳ×ł": 2008,
      "×ł×Ļ×Ļ×Ŀ": 2009,
      "our": 2010,
      "Ġ×ł×ķ×¡×£": 2011,
      "Ġ×¡×¤": 2012,
      "36": 2013,
      "×ķ×©×Ĳ": 2014,
      "×Ļ×ŀ×Ļ": 2015,
      "×Ļ×ª×Ļ×Ŀ": 2016,
      "Ġ×ŀ×©×ł×ª": 2017,
      "Ġ×ľ×ŀ×Ĺ": 2018,
      "Ġ×©×ĳ×Ķ": 2019,
      "×Ľ×ª×Ķ": 2020,
      "×ķ×ŀ×ĵ": 2021,
      "Ġ×ľ×Ĳ×ķ×¨": 2022,
      "Ð¸": 2023,
      "|J": 2024,
      "Ġ×©×¤": 2025,
      "rowspan": 2026,
      "Ġ×ĳ×ŀ×¢": 2027,
      "Ġ×¦×¨×¤×ª": 2028,
      "Ġ×©×ª×Ļ": 2029,
      "×Ĺ×Ļ×Ŀ": 2030,
      "Ġ×ĳ×Ĳ×ŀ×¦×¢×ķ×ª": 2031,
      "×Ļ×§×¡": 2032,
      "Ġ×Ĵ×ĵ": 2033,
      "Ġ×©×Ļ": 2034,
      "MGHF": 2035,
      "=http": 2036,
      "Ġ×§×ķ×¨": 2037,
      "Ġ×Ĺ×ĵ": 2038,
      "'×¨": 2039,
      "Ġ×ĳ×Ĳ×ľ": 2040,
      "×ķ×Ĺ×ĵ": 2041,
      "Ġ×ķ×ĵ": 2042,
      "×ķ×¤×Ļ×Ŀ": 2043,
      "×Ļ×Ľ×ķ×Ł": 2044,
      "Ġ×ķ×ĳ×Ķ": 2045,
      "Ġ×ĳ×Ķ×Ŀ": 2046,
      "Ġ×©×Ļ×Ĺ×§": 2047,
      "Ġ×¡×ĳ": 2048,
      "37": 2049,
      "×ķ×Ĳ×Ļ": 2050,
      "×Ļ×ĺ×ķ×ĺ": 2051,
      "Ġ×ķ×ľ×Ķ": 2052,
      "ore": 2053,
      "Ġ×Ķ×¢×ľ": 2054,
      "Ġ×ķ×Ļ": 2055,
      "xt": 2056,
      "Âł": 2057,
      "×Ľ×ķ×Ł": 2058,
      "×ŀ×Ļ×Ķ": 2059,
      "×ł×ĵ×Ķ": 2060,
      "ly": 2061,
      "×ķ×§×¨": 2062,
      "Ġ×ŀ×§×ķ×¨": 2063,
      "×Ļ×ŀ×ķ": 2064,
      "ct": 2065,
      "Ġ×ľ×ŀ×¨": 2066,
      "Ġ×Ĳ×ķ×ľ×Ŀ": 2067,
      "×ķ×¤×Ļ×¢": 2068,
      "Ġ×©×ł×¢": 2069,
      "×ŀ×ł×Ļ×ª": 2070,
      "|}}}|Ċ": 2071,
      "×Ĵ×Ļ×Ŀ": 2072,
      "Ġ×ķ×ĸ": 2073,
      "×ľ×¡": 2074,
      "Ġ×ķ×ľ×Ĳ×Ĺ×¨": 2075,
      "Ġ×ĳ×¨×Ĳ×©": 2076,
      "×Ļ×Ĳ×ķ×Ł": 2077,
      "66": 2078,
      "×ĺ×Ļ": 2079,
      "Ġ×Ĳ×ª×¨": 2080,
      "×ķ×ł×ķ": 2081,
      "Ġ×ŀ×ķ×©": 2082,
      "×ķ×ĵ×©": 2083,
      "×ĵ×ķ×¨×¡×ľ": 2084,
      "×Ļ×§×Ļ×¤×ĵ×Ļ×Ķ": 2085,
      "Ġ×ĳ×¨×Ĺ": 2086,
      "×ĳ×Ļ×ľ": 2087,
      "Ġ×ŀ×¨×Ľ×ĸ": 2088,
      "×Ĵ×Ļ×¢": 2089,
      "Ġ×ŀ×Ł": 2090,
      ".g": 2091,
      "×ľ×Ķ×§×Ķ": 2092,
      "Ġ×ķ×ĳ×©": 2093,
      "Ġ×ĳ×Ĳ×ª×¨": 2094,
      "Ġa": 2095,
      "×ĸ×ª": 2096,
      "web": 2097,
      "189": 2098,
      "Ġ×Ļ×¦×Ĳ": 2099,
      "Ġ×¢×ª": 2100,
      "×ķ×§×¡": 2101,
      "Ġ×Ķ×ķ×¤×¢×ķ×ª": 2102,
      "vg": 2103,
      "Ġ×ľ×Ķ×¦": 2104,
      "Ġ×Ķ×ķ×¨": 2105,
      "Ġ×Ľ×©×Ķ": 2106,
      "×Ľ×Ŀ": 2107,
      "×Ĳ×¨×¦×ķ×ª": 2108,
      "Ġ×Ķ×ķ": 2109,
      "Ġ×§×Ļ×ĳ×ľ": 2110,
      "×Ļ×ķ×¨": 2111,
      "Ġ×ĳ×Ĳ×ĸ×ķ×¨": 2112,
      "Ġ×¨×ĳ×Ļ": 2113,
      "×ĳ×ķ×ľ": 2114,
      "×ķ×ł×Ĵ": 2115,
      "Ġ×©×§": 2116,
      "×Ľ×Ļ×Ŀ": 2117,
      "×Ĵ×ķ×¨×Ļ×Ķ": 2118,
      "×ŀ×§×ķ×¨": 2119,
      "Ġ×ŀ×ķ×ŀ×ľ": 2120,
      "×Ľ×Ļ": 2121,
      "×Ļ×Ľ×ķ×ª": 2122,
      "Ġ×ĳ×Ļ×¦": 2123,
      "Ġ×Ķ×ŀ×ŀ": 2124,
      "|×Ľ×ª×ķ×ĳ×ª": 2125,
      "Ġ×ŀ×ŀ×ł": 2126,
      "Ġ×Ķ×Ĳ×ľ×ĳ×ķ×Ŀ": 2127,
      "×Ļ×ĵ×¢": 2128,
      "×Ļ×ł×¡": 2129,
      "Ġ×¨×Ĳ×©×ķ×Ł": 2130,
      "Ġ×Ķ×¢×ª": 2131,
      "Ġ×¢×ķ×ĵ": 2132,
      "×¤×Ł": 2133,
      "ish": 2134,
      "Ġ×Ļ×ķ×¨×§": 2135,
      "×¤×ķ×ĳ×ľ": 2136,
      "×ķ×ĸ×Ļ×§×Ķ": 2137,
      "Ðµ": 2138,
      "Ġ×Ķ×¤×ł×Ļ×Ķ": 2139,
      "Ġ×ľ×Ļ×ĵ×Ķ": 2140,
      "Ġ×ŀ×©×¤×Ĺ×ª": 2141,
      "|×ŀ×¤×Ķ": 2142,
      "Ġ×ĳ×¢×ľ×Ļ": 2143,
      "Ġ×Ĳ×ķ×¤": 2144,
      "Ġ×ĳ×Ĵ×Ļ×ľ": 2145,
      "×¨×©": 2146,
      "Ġ×ķ×Ķ×ª": 2147,
      "Ġ×Ķ×Ł": 2148,
      "32": 2149,
      "ue": 2150,
      "×¦×Ļ×ĺ×ķ×ĺ": 2151,
      "Ġ×Ķ×§×¨": 2152,
      "Ġ×ĳ×ŀ×¦": 2153,
      "×ķ×§×Ļ": 2154,
      "Ġ×Ķ×ķ×ľ": 2155,
      "!!": 2156,
      "×Ļ×Ľ×ª": 2157,
      "×ľ×ķ×ľ": 2158,
      "ks": 2159,
      "Ġ×Ĳ×ľ×Ķ": 2160,
      "×Ļ×ĺ×ľ×Ļ×Ķ": 2161,
      "|×Ĺ": 2162,
      "Ġ×Ķ×ŀ×ľ": 2163,
      "],": 2164,
      "95": 2165,
      "×ķ×¢×Ļ×Ŀ": 2166,
      "×¤×ª×Ĺ": 2167,
      "×ŀ×ķ×ļ": 2168,
      "×ŀ×Ĳ×ľ": 2169,
      "}}ĊĊĊ": 2170,
      "right": 2171,
      "×Ļ×©×Ļ×ª": 2172,
      "Ġ×ĳ×§×¨×ĳ": 2173,
      "Ġ×Ĳ×ĸ×ķ×¨": 2174,
      "og": 2175,
      "-×Ķ": 2176,
      "Ġ×ķ×Ļ×ľ": 2177,
      "Ġ×ĳ×©×ł×Ļ×Ŀ": 2178,
      "Ġ×Ľ×ŀ×Ķ": 2179,
      "tern": 2180,
      "Ġ{": 2181,
      "Ġ×Ķ×ŀ×¨×Ľ×ĸ": 2182,
      "×ĺ×Ķ": 2183,
      "Ġ×ŀ×Ĳ×ķ×ĵ": 2184,
      "Ġ×Ĳ×¨×ĳ": 2185,
      "-b": 2186,
      "Ġ×©×Ķ×ª": 2187,
      "Ġ×Ķ×Ļ×¨": 2188,
      "×ķ×ľ×ª": 2189,
      "Ġ×ŀ×ª×ķ×ļ": 2190,
      "×Ļ×Ĳ×ĺ×¨×ķ×Ł": 2191,
      "){{": 2192,
      "Ġ×¤×¡": 2193,
      "ĠY": 2194,
      "|×§": 2195,
      "×ķ×©×ĳ": 2196,
      "×ľ×Ļ×Ł": 2197,
      "Ġ×Ĳ×ĵ×Ŀ": 2198,
      "Ġ×ª×ķ×Ĳ×¨": 2199,
      "Ġ×ª×©": 2200,
      "Ġ×Ĳ×ľ×ķ": 2201,
      "×ŀ×Ļ×Ł": 2202,
      "|×ŀ×¡": 2203,
      "48": 2204,
      "Ġ×ĺ×ľ×ķ×ķ×Ļ×ĸ×Ļ×Ķ": 2205,
      "Ġ×ľ×¤×Ļ": 2206,
      "×ŀ×ķ×Ł": 2207,
      "Ġ×Ļ×ķ×Ŀ": 2208,
      "×ķ×¤×ķ×ª": 2209,
      "×¤×ķ×ľ": 2210,
      "Ġrowspan": 2211,
      "×ĳ×Ļ×¨": 2212,
      "188": 2213,
      "se": 2214,
      "×ķ×ŀ×ķ": 2215,
      "×ª×¤×§×Ļ×ĵ": 2216,
      "Ġ×Ķ×ŀ×ĺ": 2217,
      "Ġ×ŀ×ķ×ŀ×ľ×¦×ª": 2218,
      "Ġ×ĳ×ĳ×¨": 2219,
      "×ĺ×ľ": 2220,
      "Ġ×ŀ×ķ×ľ": 2221,
      "Ġ×¢×©": 2222,
      "×Ļ×ĵ×¢×ª": 2223,
      "01": 2224,
      "Ġ×Ļ×ľ×ĵ×Ļ×Ŀ": 2225,
      ":×ª×ŀ×ķ×ł×Ķ": 2226,
      "×ĺ×ķ": 2227,
      "×Ļ×ĵ×ª": 2228,
      "Ġ×ľ×¤×¨": 2229,
      "×Ĳ×Ĵ": 2230,
      "Öµ": 2231,
      "×ķ×ĵ×¨": 2232,
      "',": 2233,
      "|×ĵ": 2234,
      "ng": 2235,
      "Ġ×Ķ×ĳ×Ľ×ķ×¨×Ķ": 2236,
      "Ġ×ĵ×ĳ×¨": 2237,
      "×ŀ×ŀ×": 2238,
      "×ķ×Ļ×ĵ": 2239,
      "×ķ×¡×Ļ": 2240,
      "×ķ×ŀ×Ł": 2241,
      "47": 2242,
      "Ġ×ľ×§×ĳ": 2243,
      ":×Ķ×Ļ×ĵ×¢×ª": 2244,
      "×Ļ×Ľ×¨": 2245,
      "Ġ×ª×ŀ": 2246,
      "Ġ×ª×¨": 2247,
      "×Ļ×ŀ×ł": 2248,
      "×ķ×ĳ×Ļ×Ŀ": 2249,
      "×ł×Ļ×Ļ×Ł": 2250,
      "Ġ×ĳ×¡×¤×¨": 2251,
      "Ġ#": 2252,
      "×ĺ×¨×£": 2253,
      "×ĺ×Ļ×Ŀ": 2254,
      "×ķ×ŀ×ĳ": 2255,
      "×¤×¢": 2256,
      "Ġ×Ķ×Ĳ×ŀ×¨×Ļ×§": 2257,
      "Ġ×ĳ×Ļ×§": 2258,
      "×Ĳ×§": 2259,
      "Ġ×¢×¨": 2260,
      "Ġ×ŀ×Ĳ×ĸ": 2261,
      "×Ļ×§×ª": 2262,
      "Ġ×Ĺ×¡": 2263,
      "ft": 2264,
      "Ġ×ĳ×ł×ķ×¡×£": 2265,
      "Ġ×¤×¢×Ļ×ľ×ķ×ª": 2266,
      "×ĳ×¨×Ĵ": 2267,
      "×ĳ×¨×ķ×ª": 2268,
      "Ġ×Ĳ×©": 2269,
      "×¨×Ļ×ļ": 2270,
      "/p": 2271,
      "Ġ×Ľ×ĳ": 2272,
      "Ġ×¦×¤": 2273,
      "39": 2274,
      "ill": 2275,
      "Ġ×Ķ×¨×Ľ": 2276,
      "Ġ×ŀ×ł×ª": 2277,
      "Ġ×Ķ×ŀ×ľ×Ĺ×ŀ×Ķ": 2278,
      ":ĊĊ": 2279,
      "×ķ×ł×Ļ×ĳ×¨×¡×Ļ×ĺ×Ķ": 2280,
      "×Ļ×ĺ×Ļ×ª": 2281,
      "Ġ×Ĳ×¤×¨": 2282,
      "×Ļ×ª×ķ×Ĺ": 2283,
      "Ġ×Ķ×Ĳ×Ļ×¨": 2284,
      "Ġ×§×¦": 2285,
      "ian": 2286,
      "''Ċ": 2287,
      "×ķ×ł×Ļ×Ķ": 2288,
      "Ġ×ĳ×ŀ×©×Ĺ×§": 2289,
      ".svg": 2290,
      "×Ļ×ĺ×ł×Ļ×Ķ": 2291,
      "Ġ×©×ª": 2292,
      "×ķ×ĸ×Ķ": 2293,
      "Ġ×¢×ĸ": 2294,
      "×Ķ×©": 2295,
      "%A": 2296,
      "Ġ×ľ×Ľ×ľ": 2297,
      "Ġ×ª×ķ×ļ": 2298,
      "Ġ×Ĵ×¨×ŀ×ł×Ļ×Ķ": 2299,
      "Ġ×Ķ×Ĳ×ľ": 2300,
      "Ġ×ĵ×¨×ļ": 2301,
      "×ŀ×¢×ķ×ª": 2302,
      "'×ķ×Ł": 2303,
      "Ġ×¢×ķ×ĳ": 2304,
      "46": 2305,
      "Ġ×ŀ×¤×Ķ": 2306,
      "Ġ×Ķ×¤×¡": 2307,
      "×ķ×Ĺ×ĵ×ª": 2308,
      "×ĺ×ķ×Ł": 2309,
      "×Ļ×Ļ×¨×Ķ": 2310,
      "×Ĳ×ĸ": 2311,
      "ĠSt": 2312,
      "Ġ×ŀ×¢×ľ": 2313,
      "\"|": 2314,
      "×Ĵ×¨×ŀ×ł×Ļ×Ķ": 2315,
      "Ġ×¡×ľ": 2316,
      "×ŀ×ĸ": 2317,
      "Ġ×ĸ×Ľ×ª×Ķ": 2318,
      "×ł×Ł": 2319,
      "×ķ×ķ×Ł": 2320,
      "=S": 2321,
      "Ġ×ķ×ŀ×ª": 2322,
      "Ġ×¢×ŀ": 2323,
      "::": 2324,
      "Ġ×©×ľ×ķ×©": 2325,
      "ÑĢ": 2326,
      "×ķ×ĵ×ľ": 2327,
      "archive": 2328,
      "\">{{": 2329,
      "Ġ×ł×Ļ×ķ": 2330,
      "×Ļ×ĺ×¨": 2331,
      "Ġ×¤×Ļ×¨": 2332,
      "\"×¡": 2333,
      "text": 2334,
      "×¢×ķ": 2335,
      "ies": 2336,
      "Ġ×ł×©×Ļ×Ŀ": 2337,
      "Ġ×©×Ļ×ŀ×ķ×©": 2338,
      "ity": 2339,
      "×ľ×ķ×Ĵ×ķ": 2340,
      "Ġ×Ĳ×ĳ×Ļ×ķ": 2341,
      "Ġ×¤×ķ×¨×ĺ": 2342,
      "Ġ×ĳ×Ķ×ª": 2343,
      "Ġ×ł×§×¨×Ĳ": 2344,
      "Ġ×©×ĳ×ķ": 2345,
      "×Ļ×¦×Ķ": 2346,
      "au": 2347,
      "×¡×ĺ×¨": 2348,
      "×ķ×ĵ×ª": 2349,
      ".html": 2350,
      "×Ļ×§×ľ": 2351,
      "Ġ×Ķ×Ļ×ľ": 2352,
      "Ġ×Ľ×Ļ×ķ×Ŀ": 2353,
      "PG": 2354,
      "Cite": 2355,
      "Ġ×¦×ĳ×¢": 2356,
      "Ġ×ĳ×Ļ×ĵ×Ļ": 2357,
      "×ł×¦": 2358,
      "Ð½": 2359,
      "×Ļ×§×ķ×ĵ": 2360,
      "gcolor": 2361,
      "05": 2362,
      "Ġ×Ķ×¦×ĳ×Ĳ": 2363,
      "Ġ×ĳ×ľ×ĳ×ĵ": 2364,
      "×Ļ×ľ×ķ×Ŀ": 2365,
      "×ľ×Ļ×Ļ×ª": 2366,
      "Ġ×¡×Ļ×Ļ×Ŀ": 2367,
      "×Ļ×Ĺ×Ķ": 2368,
      "Ġ×§×ķ×ĵ": 2369,
      "\"×Ĵ": 2370,
      "Ġ×Ķ×¤×ļ": 2371,
      "est": 2372,
      "Ġ×Ĵ×ķ×¨": 2373,
      "Ġ×Ĺ×ķ×¤": 2374,
      "Ġ×ķ×Ĳ×ª": 2375,
      "Ġ×ľ×Ļ×ŀ×ķ×ĵ": 2376,
      "×Ĵ×©": 2377,
      "=#": 2378,
      "Ġ×Ĵ×ĳ×ķ×Ķ": 2379,
      "Ġ×Ķ×Ļ×Ĺ": 2380,
      "Ġ!!": 2381,
      "cess": 2382,
      "Ġ×Ķ×ĸ×Ķ": 2383,
      "}}}}.ĊĊ": 2384,
      "×¡×Ļ×Ŀ": 2385,
      "Ġ×©×ķ×ł×ķ×ª": 2386,
      "Ġ×Ķ×Ĺ×ľ×Ķ": 2387,
      "×Ļ×ŀ×Ł": 2388,
      "×ķ×ł×Ļ×ķ×ª": 2389,
      "Ġ×§×ĳ×ķ×¦×ª": 2390,
      "ltr": 2391,
      "Ġ×Ļ×Ķ×ķ×ĵ×Ļ×Ŀ": 2392,
      "Ġ×Ĺ×Ļ×ľ": 2393,
      "|×¨×ķ×Ĺ×ĳ": 2394,
      "Ġ×Ķ×ķ×ĵ": 2395,
      "Ġ×Ķ×ĳ×Ļ×ł": 2396,
      "Ġ×ĳ×Ļ×¨×ķ×©×ľ×Ļ×Ŀ": 2397,
      "Ġ×¢×¦×ŀ×ķ": 2398,
      "Ġ×Ķ×§×ĵ": 2399,
      "Ġ×ĳ×Ĳ×¨×¦×ķ×ª": 2400,
      "×ķ×¡×Ļ×Ŀ": 2401,
      "ĠIn": 2402,
      "Ġ×§×Ļ×ĳ": 2403,
      "×Ļ×Ĳ×ķ×ª": 2404,
      "Ġ×ŀ×ª×Ĺ": 2405,
      "Ġ×Ľ×Ĵ×ķ×Ł": 2406,
      "Ġ×©×ŀ×ķ": 2407,
      "Ġ×Ķ×©×ľ×Ļ×©×Ļ": 2408,
      "Ġ×ł×ķ×¡×¤×ª": 2409,
      "ep": 2410,
      "×¤×Ļ×Ķ": 2411,
      "×ł×ĳ×Ĺ×¨×ª": 2412,
      "=×©": 2413,
      "Ġ×Ķ×ŀ×Ĵ": 2414,
      "07": 2415,
      "JPG": 2416,
      "×ľ×Ĺ×Ķ": 2417,
      "×ķ×©×ľ": 2418,
      "08": 2419,
      "×Ļ×ł×ķ×ļ": 2420,
      "ell": 2421,
      "Ġ×Ĳ×ŀ×¨": 2422,
      "Ġ×Ĵ×Ĳ": 2423,
      "×Ķ×Ļ×ľ×Ķ": 2424,
      "×ŀ×Ļ×ł": 2425,
      "ne": 2426,
      "×ķ×ł×ĵ×ķ×Ł": 2427,
      "×ķ×ĺ×¨": 2428,
      "Ġ×ŀ×ľ×ļ": 2429,
      "×Ļ×§×Ļ×Ŀ": 2430,
      "49": 2431,
      "×Ĳ×¨×§": 2432,
      "Ġ×Ķ×ª×¢": 2433,
      "=[": 2434,
      "Ġ×ŀ×¡×ķ": 2435,
      "Ġ×Ĳ×ķ×¡×ĺ×¨": 2436,
      "width": 2437,
      "Ġ×§×¦×¨": 2438,
      "Ġ×ĳ×ĵ×¨×ļ": 2439,
      "Ġ×ķ×¢×ĵ": 2440,
      "Ġ×Ļ×¨×ķ×©×ľ×Ļ×Ŀ": 2441,
      "Ġ×¦×ĳ×Ĳ": 2442,
      "Ġ×ł×Ĳ": 2443,
      "×ĳ×ķ×¨×Ĵ": 2444,
      "sh": 2445,
      "Ġ×¢×¡×§": 2446,
      "Ġvalign": 2447,
      "×ķ×ķ×Ĳ": 2448,
      "|×ĳ": 2449,
      "Ġ×ķ×ĳ×¢": 2450,
      "Ġ×¤×ķ×¨": 2451,
      "×ķ×¡×Ļ×ª": 2452,
      "06": 2453,
      "ary": 2454,
      "wiki": 2455,
      ";\"Ċ": 2456,
      "Ġ×ľ×ŀ×ł": 2457,
      "×Ļ×§×ķ×ª": 2458,
      "news": 2459,
      "Ġ×Ĳ×¤": 2460,
      "×Ļ×ª×¨": 2461,
      "Ġ×©×ĺ×Ĺ": 2462,
      "|url": 2463,
      "Ġ×ĳ×¢×ķ×ľ×Ŀ": 2464,
      "Ġ×ł×Ļ×¡": 2465,
      "Ġ×Ĳ×ķ×ª×Ŀ": 2466,
      "Ġ×Ĳ×Ļ×Ł": 2467,
      "×§×ĳ×Ķ": 2468,
      "×Ļ×ĵ×ķ×¨": 2469,
      "×Ľ×¨×ĸ×ª": 2470,
      "Ġ×¤×¨×ĺ": 2471,
      "=P": 2472,
      "ĠCh": 2473,
      ")\"": 2474,
      "px": 2475,
      "Ġ×Ĳ×ľ×Ĳ": 2476,
      "'s": 2477,
      "Ġ×Ĺ×ķ×§": 2478,
      "Ġ×Ķ×ŀ×ŀ×©": 2479,
      "Ġ×Ķ×Ļ×ķ×Ŀ": 2480,
      "|×ľ": 2481,
      "Ġ×ľ×ĳ×Ļ×ª": 2482,
      "Ġ×¦×Ļ": 2483,
      "Ġdir": 2484,
      "×Ļ×Ĵ×ķ×ĵ": 2485,
      "ory": 2486,
      "×©×ª×ķ": 2487,
      "Ġ×ĳ×ŀ×Ľ": 2488,
      "Ġ×¢×ĳ×ĵ": 2489,
      "Ġ×Ĳ×ł×ĺ": 2490,
      "Ġ×ł×ĳ": 2491,
      "Ġ×ĳ×Ĳ×Ļ×¨": 2492,
      "×¨×Ĳ×ľ×Ļ": 2493,
      "×§×¡×ĺ": 2494,
      "Ġ×ķ×¦": 2495,
      "Ġ×ľ×Ĳ×ķ×¨×ļ": 2496,
      "×ĸ×ŀ": 2497,
      "Ġ×Ĳ×Ļ×¨×ķ×¤×Ķ": 2498,
      "Ġ×Ľ×ķ×ª×¨×ª": 2499,
      "×ķ×Ľ×¨": 2500,
      "120": 2501,
      "×Ĳ×ķ×¨": 2502,
      "Ġ×Ķ×¦×ľ×Ļ×Ĺ": 2503,
      "=A": 2504,
      "Ġ×¢×ĳ×ķ×ĵ": 2505,
      "Ġ×Ľ×ĳ×¨": 2506,
      "Ġ×ŀ×ķ×ł": 2507,
      "×Ĳ×ĵ": 2508,
      "access": 2509,
      "net": 2510,
      "\"×Ĺ": 2511,
      "04": 2512,
      "Ġ×ķ×¢×ľ": 2513,
      "Ġde": 2514,
      "Ġ×Ķ×¢×ľ×Ļ": 2515,
      "Ġ×Ļ×ķ×¦": 2516,
      ".JPG": 2517,
      "Ġto": 2518,
      "qu": 2519,
      "×Ļ×¢×Ļ": 2520,
      "Ġ×Ļ×ķ×ŀ×Ļ": 2521,
      "×ķ×ł×Ĵ×¨×Ļ×Ķ": 2522,
      "187": 2523,
      "Ġ×ľ×Ķ×Ŀ": 2524,
      "ta": 2525,
      "Ġ×Ĳ×Ĵ": 2526,
      "×ŀ×ł×Ļ": 2527,
      "×Ĵ×ł×ķ×Ł": 2528,
      "Ġ×ŀ×©×Ķ": 2529,
      "ty": 2530,
      "×ķ×©×ĳ×Ļ×Ŀ": 2531,
      "Ġ×Ķ×¢×¦": 2532,
      "Ġ&": 2533,
      "×ł×Ļ×§": 2534,
      "Ġ×©×ĳ×¢": 2535,
      "×Ļ×¡×¨": 2536,
      "×Ĵ×ķ×ª": 2537,
      "×Ķ×ª": 2538,
      "Ġ×Ķ×¨×©": 2539,
      "Ġ×Ķ×ŀ×©×¤×ĺ": 2540,
      "×ł×Ļ×ķ": 2541,
      "ĠĠĠĠĠĠĠĠ": 2542,
      "Ġ×©×ľ×Ķ×Ŀ": 2543,
      "=×¡": 2544,
      "ru": 2545,
      "58": 2546,
      "×Ĳ×ľ×Ķ": 2547,
      "×ķ×ŀ×Ļ×Ļ×Ŀ": 2548,
      "Ġ×Ķ×Ĳ×ĵ": 2549,
      "Ġ×§×ķ×ĳ": 2550,
      "57": 2551,
      "Ġweb": 2552,
      "09": 2553,
      "Ġ×ĳ×¢×ª": 2554,
      "Ġ×¤×¢×ķ×ľ×Ķ": 2555,
      "×©×ĺ×Ļ×Ļ×Ł": 2556,
      "Ġ×Ķ×ľ×Ķ×§×Ķ": 2557,
      "Ġ×Ķ×©×ł×Ķ": 2558,
      "Ġ×©×ķ×ĳ": 2559,
      "×Ļ×ŀ×ķ×Ł": 2560,
      "-f": 2561,
      "Ġ×Ĳ×ĳ×ľ": 2562,
      "Ġ×ĵ×ķ×ĵ": 2563,
      "×¤×Ļ×ľ": 2564,
      "×§×ĵ×ŀ×Ļ×Ķ": 2565,
      "colspan": 2566,
      "-m": 2567,
      "ph": 2568,
      "Ġ×Ķ×Ĵ×ĵ": 2569,
      "Ġ×ķ×¢×ķ×ĵ": 2570,
      "×ķ×ĳ×Ļ×ľ": 2571,
      "×Ļ×ĵ×Ļ×Ŀ": 2572,
      "×Ļ×ª×ķ×Ł": 2573,
      ">\\": 2574,
      "-d": 2575,
      "Ġ×§×ķ×ł": 2576,
      "ver": 2577,
      "×ķ×§×ĵ": 2578,
      "×ľ×Ĺ×ª": 2579,
      "Ġ×Ķ×¦×¨×¤×ª": 2580,
      "×ķ×¤×¡": 2581,
      "Ġ×ĵ×ķ×ľ×¨": 2582,
      "×ķ×Ľ×Ļ×Ŀ": 2583,
      "×Ļ×Ľ×ľ": 2584,
      "icle": 2585,
      "Ġ×ĳ×ª×Ĺ×ķ×Ŀ": 2586,
      "Ñģ": 2587,
      "Ġ×Ķ×Ĳ×Ļ×ŀ×¤×¨×Ļ×Ķ": 2588,
      "Ã©": 2589,
      "Ġ×Ĳ×¦×ľ": 2590,
      "Ġ×¤×Ĳ": 2591,
      "\"×ĵ": 2592,
      "Ġ×Ĺ×ª×Ŀ": 2593,
      "×ķ×ľ×ĵ×Ķ": 2594,
      "Ġ×Ĳ×Ļ×ª": 2595,
      "×ľ×Ŀ": 2596,
      "×Ļ×Ĺ×ķ×ĵ": 2597,
      "Ġ×ł×Ļ×©": 2598,
      "Ġ×ŀ×ł×Ķ×Ļ×Ĵ": 2599,
      "Ġ×¤×Ļ×ľ": 2600,
      "Ġ×Ļ×Ľ×ķ×ľ": 2601,
      "Ġ×ŀ×©×ŀ×©": 2602,
      "×Ĵ×ľ×Ļ×Ķ": 2603,
      "×ľ×ª×Ļ": 2604,
      "×ľ×ĺ×ķ×Ł": 2605,
      "Ġ×©×Ļ×¨×ķ×ª": 2606,
      "ck": 2607,
      "×ľ×Ľ×ª": 2608,
      "Ġ×ŀ×Ĺ×ĵ×©": 2609,
      "×ķ×Ľ×¡": 2610,
      "Ġ×ľ×ŀ×¦": 2611,
      "Ġ×¡×§": 2612,
      "Ġ×ĳ×ł×ķ": 2613,
      "×ĳ×ł": 2614,
      "ĠRD": 2615,
      "Ġ×Ķ×¤×ľ": 2616,
      "Ġ×ĳ×ŀ×Ĺ×ķ×ĸ": 2617,
      "186": 2618,
      "Ġ×ľ×Ļ×ĵ": 2619,
      "Ġ×Ķ×Ļ×Ŀ": 2620,
      "Ġ×ĳ×¤×¨×¡": 2621,
      "lay": 2622,
      "Ġ×ľ×Ķ×©×ª": 2623,
      "Ġ×¢×ķ×ł×ª": 2624,
      "Ġ×©×ľ×ķ×©×Ķ": 2625,
      "Ġ×ĸ×Ľ": 2626,
      "ri": 2627,
      "Ġ×ĳ×Ĵ×ľ": 2628,
      "Ġ×ľ×ŀ×¤": 2629,
      "×Ĺ×ķ": 2630,
      "Ġ×Ľ×¢": 2631,
      "Ġ×ł×Ĵ": 2632,
      "attern": 2633,
      "|×Ĵ×ķ×ĳ×Ķ": 2634,
      "Ġ×ľ×ŀ×§×ķ×Ŀ": 2635,
      "Ġ×ľ×¦×ĵ": 2636,
      "Ġ×Ķ×Ĵ×ĳ": 2637,
      "Ġ×ľ×Ķ×©": 2638,
      "Ġ×Ķ×ŀ×ķ×¢×¦×ķ×ª": 2639,
      "Ġ×Ķ×¤×¢": 2640,
      "Ġ×Ķ×ª×Ĳ": 2641,
      "×Ļ×ĳ×Ļ": 2642,
      ":×¦×Ļ×ĺ×ķ×ĺ": 2643,
      "×¨×Ĳ×ª": 2644,
      "×¨×Ļ×Ļ×¨×Ķ": 2645,
      "Ġ×¨×ķ×ĸ": 2646,
      "56": 2647,
      "×ł×ķ×¢×Ķ": 2648,
      "Ø§": 2649,
      "ast": 2650,
      "03": 2651,
      "×Ļ×©×Ļ×Ŀ": 2652,
      "Ġ×ķ×Ķ×Ļ×Ķ": 2653,
      "Ġ×ł×ŀ×¦×Ĳ": 2654,
      "Ġ×ľ×¢×Ļ×ª×Ļ×Ŀ": 2655,
      "Ġ×ĳ×Ķ×ŀ×©×ļ": 2656,
      "Ġ×Ķ×Ļ×ĵ": 2657,
      "Ġ×ķ×ŀ×Ĳ": 2658,
      "Ġ×©×¢×¨×Ļ×Ŀ": 2659,
      "end": 2660,
      "×ķ×¤×¢×ķ×ª": 2661,
      "-w": 2662,
      "-color": 2663,
      "×ķ×¨×ł": 2664,
      "×Ļ×ĳ×ķ×ĳ": 2665,
      "Ġ×Ĳ×ŀ": 2666,
      "×¨×Ľ×ķ×ª": 2667,
      "Ġ×ĳ×Ĳ×ľ×Ļ×¤×ķ×ª": 2668,
      "×ķ×Ĺ×Ķ": 2669,
      "Ġ×Ķ×Ĳ×Ļ": 2670,
      "×¨×Ľ×ķ": 2671,
      "×ľ×§×Ķ": 2672,
      "Ġ×Ļ×Ļ×©×ķ×ĳ": 2673,
      "×ĳ×Ĳ×Ļ": 2674,
      "78": 2675,
      "Ġ×ķ×Ķ×©": 2676,
      "Ġ×¢×§×ĳ": 2677,
      "×¢×Ł": 2678,
      "×¤×ķ×ĳ×ľ×Ļ×§×Ķ": 2679,
      "Ġ×Ĳ×Ļ×ł×ķ": 2680,
      "ge": 2681,
      "Ġ×Ķ×ŀ×Ĳ×ķ×Ĺ×ĵ×ª": 2682,
      "Ġ×ķ×ĳ×©×ł×ª": 2683,
      "Ġ×¤×¢×Ļ×ľ": 2684,
      "×ĳ×Ļ×Ł": 2685,
      "=-": 2686,
      "Ġ×Ķ×¦×¤": 2687,
      "Ġ×ķ×Ĳ×£": 2688,
      "×©×¨×Ļ×Ŀ": 2689,
      "ld": 2690,
      "Ġ×Ĺ×¨": 2691,
      "×ķ×¤×Ļ×Ķ": 2692,
      "Ġ×Ķ×ĳ×Ļ×ª": 2693,
      "×ľ×¨": 2694,
      "Ð¾Ð": 2695,
      "×ĸ×¨×ª": 2696,
      "Ġ×ł×§×ķ×ĵ×ķ×ª": 2697,
      "Ġ×Ĳ×ķ×ľ": 2698,
      "Ġ×Ĵ×¨×¡": 2699,
      "×Ĺ×Ļ": 2700,
      ")}}Ċ": 2701,
      "Ġ×¤×ª": 2702,
      "×ķ×¦×¢": 2703,
      "Ġ×Ķ×ŀ×©×Ĺ×§": 2704,
      "×Ľ×ĳ": 2705,
      "Ġ×ľ×©×ł×ª": 2706,
      "-p": 2707,
      "×¦×ķ": 2708,
      "Ġ×¨×¤": 2709,
      "×ķ×ĵ×Ļ×Ķ": 2710,
      "×ŀ×Ĳ×ķ×ª": 2711,
      "×ĳ×¨×ķ": 2712,
      "×ľ×§×ª": 2713,
      "×Ļ×¨×Ļ": 2714,
      "×ŀ×¢×ĺ": 2715,
      "×¤×ķ×¡": 2716,
      "/m": 2717,
      "×Ķ×¡": 2718,
      "×ľ×Ļ×ķ×ª": 2719,
      "Ġ×ŀ×¢×¨×Ľ×ª": 2720,
      "×ŀ×Ĳ×Ļ": 2721,
      "×ķ×ĺ×Ķ": 2722,
      "×¤×ł×Ļ": 2723,
      "×ķ×§×Ļ×Ŀ": 2724,
      "|×ŀ×¡×¤×¨": 2725,
      "42": 2726,
      "ure": 2727,
      "|p": 2728,
      "×ł×Ĺ": 2729,
      "Ġ×Ĺ×ĸ×¨": 2730,
      "Ġ×Ĺ×ŀ": 2731,
      "×ķ×Ļ×ĵ×ķ×Ĳ": 2732,
      "Ġ×Ķ×¤×ķ×ľ": 2733,
      "io": 2734,
      "_×ķ×Ļ×ĵ×ķ×Ĳ": 2735,
      "Ġ×ª×Ĳ": 2736,
      "|title": 2737,
      "×¨×§×¢": 2738,
      "×ģ": 2739,
      "Ġ×©×ľ×ĺ×ķ×ł×Ļ×ª": 2740,
      "×ŀ×Ķ×ľ×ļ": 2741,
      "02": 2742,
      "×ŀ×Ļ×ķ×Ĺ×ĵ": 2743,
      "×ĵ×Ł": 2744,
      "fr": 2745,
      "Ġ×Ļ×Ķ×ķ×ĵ×Ļ": 2746,
      "-align": 2747,
      "ÑĤ": 2748,
      "×Ĺ×Ŀ": 2749,
      "×ŀ×Ļ×Ļ×Ŀ": 2750,
      ">ĊĊ": 2751,
      "×ķ×¨×£": 2752,
      "Ġ×ł×ĺ": 2753,
      "×ķ×Ĳ×Ł": 2754,
      "Ġ×Ķ×ľ×Ĳ×ķ×ŀ×Ļ×ª": 2755,
      "×ķ×ł×Ļ×Ļ×Ŀ": 2756,
      "Ġ×¢×ĵ×Ľ×ķ×Ł": 2757,
      "Ġ×ĵ×ł": 2758,
      "Ġ×ķ×ĺ": 2759,
      "×ŀ×¨×Ľ×ĸ": 2760,
      "Ġ×Ķ×Ĺ×ĵ": 2761,
      "az": 2762,
      "Ġ×ĳ×©×ł×ķ×ª": 2763,
      "Ġ×ŀ×Ĳ×ª": 2764,
      "×Ļ×ŀ×¡": 2765,
      "×¨×Ĵ×ķ×Ł": 2766,
      "×Ļ×§×Ļ": 2767,
      "×ĵ×Ļ×ķ": 2768,
      "left": 2769,
      "Ġ×ĳ×§×ĳ": 2770,
      "ud": 2771,
      "line": 2772,
      "×Ĺ×Ļ×¨×ķ×ª": 2773,
      "Ġ×ľ×ĵ×¨": 2774,
      "Ġ×¦×Ķ": 2775,
      "\"×Ķ": 2776,
      "×ľ×ĵ": 2777,
      "59": 2778,
      ")</": 2779,
      "Ġ×ľ×ŀ×¡": 2780,
      "×ķ×¨×ĳ": 2781,
      "×Ļ×ĺ×ª": 2782,
      "Ġ×¤×¨×§×Ļ×Ŀ": 2783,
      "Ġ×ĳ×ŀ×ľ×Ĺ×ŀ×ª": 2784,
      "eg": 2785,
      "×¨×ķ×¥": 2786,
      "Ġ×Ĵ×ķ×ĳ×Ķ": 2787,
      "ust": 2788,
      "Ġ×Ķ×ŀ×Ķ": 2789,
      "×ķ×§×¨×ĺ": 2790,
      "×ķ×ľ×Ļ×ŀ×¤×Ļ×Ĳ": 2791,
      "Ġ×©×Ķ×Ļ×Ĳ": 2792,
      "},Ċ": 2793,
      "×ĳ×¡×¤×ķ×¨×ĺ": 2794,
      "Ġ×¨×Ĵ": 2795,
      "Ġ×Ķ×Ĳ×ķ×ķ×Ļ×¨": 2796,
      "Ġ×ľ×Ķ×¢": 2797,
      "×Ļ×ĺ×ķ×¨": 2798,
      "|×ĺ": 2799,
      "×ķ×Ĳ×ķ×¨×ĵ": 2800,
      "×ŀ×Ĳ×Ķ": 2801,
      "Ġ×Ķ×©×ª×ª×£": 2802,
      "ale": 2803,
      "Ġ×ĳ×ĸ×ŀ×Ł": 2804,
      "×Ķ×ķ×Ĳ": 2805,
      "Ġ×Ķ×©×Ŀ": 2806,
      "Ġ×ŀ×¤×§×ĵ": 2807,
      "=M": 2808,
      "×ĵ×¨×ķ×ª": 2809,
      "Ġ×ŀ×ķ×Ĵ": 2810,
      "Ġ×Ķ×ŀ×Ļ": 2811,
      "Ġ×Ķ×ŀ×ĸ×¨×Ĺ": 2812,
      "Ġ×ĳ×Ķ×Ļ×¡×ĺ×ķ×¨×Ļ×Ķ": 2813,
      "'×Ķ": 2814,
      "×ķ×Ĳ×Ļ×Ŀ": 2815,
      "×ķ×ĺ×Ļ": 2816,
      "×ķ×Ĳ×ķ×¨×ĵ×Ļ×ł×ĺ": 2817,
      "Ġ×Ķ×¡×Ļ×ł×Ĵ×ľ": 2818,
      "×Ļ×ª×ķ×£": 2819,
      "Ġ×ķ×Ķ×Ļ×Ĳ": 2820,
      "×ĸ×Ļ": 2821,
      "×¤×ĺ×¨": 2822,
      "Ġtr": 2823,
      "Ġ×ŀ×Ĺ×ķ×ĸ": 2824,
      "Ġ×ĸ×ķ×Ĵ": 2825,
      "Ġ×ŀ×ŀ×©×ľ×ª": 2826,
      "Ġ×Ķ×Ľ×ł×¡×ª": 2827,
      "×Ļ×ķ×ķ×Ļ×ĸ": 2828,
      "Ġ×ª×¢": 2829,
      "Ġ×ĵ×ķ": 2830,
      "Ġ×ŀ×ª×§": 2831,
      "×ķ×Ĳ×ķ×¨×ĵ×Ļ×ł×ĺ×ķ×ª": 2832,
      "Ġ×ĳ×Ĳ×¨×¥": 2833,
      "88": 2834,
      "Ġ×¢×ľ×Ļ×ķ": 2835,
      "Ġ×Ķ×ĳ×¨×Ļ×ĺ×Ļ": 2836,
      "Ġ×Ķ×¢×ķ×ł×Ķ": 2837,
      "×ĸ×Ļ×ª": 2838,
      "Ġ×Ķ×ķ×¤×¢×ª": 2839,
      "Ġ×Ķ×Ĺ×ĵ×©": 2840,
      "×Ļ×Ĺ×ĵ": 2841,
      "|}Ċ": 2842,
      "×ķ×Ĵ×ŀ×Ķ": 2843,
      "Ġ×ĳ×ª×ľ": 2844,
      "Ġ×Ĳ×¤×©×¨": 2845,
      "×Ļ×¨×ķ": 2846,
      "|×Ľ×Ļ×ķ×ķ×Ł": 2847,
      "Ġ×ľ×Ľ×ļ": 2848,
      "Ġ×ķ×Ķ×¤": 2849,
      "×Ļ×ĸ×Ķ": 2850,
      "×ŀ×§×ķ×Ŀ": 2851,
      "×Ļ×ķ×ķ×Ĵ": 2852,
      "ost": 2853,
      "×ķ×ĸ×Ļ×Ĳ×ķ×Ł": 2854,
      "Ġ×ĳ×Ļ×ĺ": 2855,
      "Ġ×¡×Ļ×ķ×Ŀ": 2856,
      ":Ċ": 2857,
      "184": 2858,
      "Ġ×Ķ×¡×ĵ×¨×Ķ": 2859,
      "\"×ĳ": 2860,
      "×ķ×ĸ×¨": 2861,
      "×ĳ×¨×Ķ×Ŀ": 2862,
      "×§×ĺ×Ĵ×ķ×¨×Ļ×Ķ": 2863,
      "Ġ×Ķ×ķ×¤×Ļ×¢": 2864,
      "×ķ×Ĵ×ľ": 2865,
      "×ķ×¤×ķ": 2866,
      "×¤×¨×ĵ": 2867,
      "×Ľ×ľ×ľ": 2868,
      "Ġ×ł×ĵ": 2869,
      "|×ĵ×Ĵ×ľ": 2870,
      "Ġ×Ľ×ŀ": 2871,
      "Ġ×Ķ×§×ĺ": 2872,
      "Ġ×ĳ×¡×ķ×£": 2873,
      "Ġ×ª×ķ×Ľ": 2874,
      "×ķ×¡×§": 2875,
      "×Ľ×ľ×Ķ": 2876,
      "Ġ×Ķ×ª×Ĺ×ª": 2877,
      "×¨×Ĳ×ķ×ª": 2878,
      "Ġ×ľ×ĳ×Ļ×Ł": 2879,
      "×ķ×©×Ļ×Ŀ": 2880,
      "×¡×ķ×£": 2881,
      "Ġ×ł×¤×ĺ×¨": 2882,
      "Ġ×ĸ×Ķ×ĳ": 2883,
      "man": 2884,
      "Ġ×Ķ×Ĳ×¨×¥": 2885,
      "Ġ×Ĳ×ľ×Ľ×¡": 2886,
      "×ķ×ľ×ł×ķ×¢": 2887,
      "×ŀ×©×Ĺ×§": 2888,
      "Ġ×§×Ĳ": 2889,
      "=C": 2890,
      "×Ĵ×ł×Ķ": 2891,
      "×Ļ×ĳ×Ļ×Ŀ": 2892,
      "core": 2893,
      "Ġcolspan": 2894,
      "Ġ×ľ×©×ľ": 2895,
      "ubl": 2896,
      "|×¦×ĳ×¢": 2897,
      "×Ĺ×Ł": 2898,
      "×Ļ×ľ×ł×ĵ": 2899,
      "Ġ×ĳ×¨×Ĺ×ĳ×Ļ": 2900,
      "Ġ×ł×©×Ļ×Ĳ": 2901,
      "Ġ×ŀ×Ļ×§×ķ×Ŀ": 2902,
      "|×ŀ×§×ķ×Ŀ": 2903,
      "Ġ×Ķ×¢×ĳ×¨×Ļ×ª": 2904,
      "Ġ×ĳ×ŀ×ĺ": 2905,
      ";Ċ": 2906,
      "Ġ×Ķ×ķ×©": 2907,
      "×Ļ×Ĳ×ķ": 2908,
      "Ġ×ľ×Ļ×©×¨×Ĳ×ľ": 2909,
      "Ġ×ŀ×©×¨×ĵ": 2910,
      "×Ľ×ł×¡": 2911,
      "Ġ×©×ĺ": 2912,
      "Ġ×Ļ×¦×Ĺ×§": 2913,
      "×Ļ×¦×ķ×ĳ": 2914,
      "old": 2915,
      "Ġ×ª×ķ×Ľ×ł×Ļ×ª": 2916,
      "Ġ×¨×Ĳ×©×Ļ": 2917,
      "×ĳ×¢×ª": 2918,
      "Ġ×Ķ×¦×Ļ": 2919,
      "Ġ×ķ×©×ľ": 2920,
      "×Ķ×ľ×Ļ×ļ": 2921,
      "Ġ×Ľ×¤×¨": 2922,
      "×ĳ×ķ×¢": 2923,
      "Ġ×Ķ×¤×ķ×¢×ľ": 2924,
      "×ŀ×Ĺ×ķ×ĸ": 2925,
      "Ġ×Ķ×ŀ×¤×ľ×Ĵ×Ķ": 2926,
      "×Ļ×¦×Ĺ×ķ×Ł": 2927,
      "Ġ×¨×¦": 2928,
      "Ġ×ĳ×ª×ķ×¦×Ĳ×Ķ": 2929,
      "×ķ×©×ª": 2930,
      "Ġ×ĳ×¡×Ļ×¡": 2931,
      "ark": 2932,
      "75": 2933,
      "\"×Ŀ": 2934,
      "Ġ×ĳ×ª×ķ×ļ": 2935,
      "Ġ×Ķ×Ķ×ª": 2936,
      "Ġ×Ķ×¨×Ĳ×©×Ļ": 2937,
      "Ġ×Ķ×Ĺ×©": 2938,
      "500": 2939,
      "Ġ×¨×Ļ": 2940,
      "Ġ×ĳ×¨×Ļ×ª": 2941,
      "Ġ×¢×ŀ×ĵ": 2942,
      "out": 2943,
      "Ġ×Ķ×ķ×Ĵ": 2944,
      "Ġ×Ķ×¦×ĺ×¨×£": 2945,
      "File": 2946,
      "Ġ×¨×ĳ×Ķ": 2947,
      "×©×ķ×¨×ª": 2948,
      "×ķ×ĺ×ķ": 2949,
      "Ġ(\"": 2950,
      "]Ċ": 2951,
      "×Ļ×¦×¨": 2952,
      ",{{": 2953,
      "×Ļ×Ľ×Ļ×Ŀ": 2954,
      "Ġ×Ķ×ĳ×Ĳ×Ķ": 2955,
      "'×ķ×¨×Ĵ": 2956,
      "|×¤": 2957,
      "×©×¢": 2958,
      ":{{": 2959,
      "Ġ×¡×ł×ĺ": 2960,
      "/b": 2961,
      "Ġ×ľ×¢×ĳ×ķ×ĵ": 2962,
      "Ġh": 2963,
      "×ķ×ĳ×¢": 2964,
      "41": 2965,
      "Ġ×¢×©×¨": 2966,
      "Ġ×ŀ×ĺ×¨×Ļ×Ŀ": 2967,
      "×ł×Ĳ×Ļ": 2968,
      "Ġ×ĳ×ª×§×ķ×¤×Ķ": 2969,
      "×ª×Ĳ×¨×Ļ×ļ": 2970,
      "Ġ×Ļ×¢×§×ĳ": 2971,
      "×ķ×ĳ×Ļ×¥": 2972,
      "Ġ×ķ×ķ×ľ": 2973,
      "Ġ×Ĳ×ķ×Ľ×ľ×ķ×¡×Ļ×Ļ×Ķ": 2974,
      "/×Ķ": 2975,
      "cc": 2976,
      "×ķ×§×¨×Ĳ": 2977,
      "×¡×Ļ×¡": 2978,
      "Ġ×ĳ×ķ×ľ": 2979,
      "ev": 2980,
      "×ĸ×§": 2981,
      "Ġ×ķ×ŀ×¡": 2982,
      "ial": 2983,
      "×ŀ×¤×ª": 2984,
      "Ġ×¡×Ļ×ł×Ĵ×ľ": 2985,
      "Ġ×ŀ×Ļ×ł": 2986,
      "-c": 2987,
      "Ġ×¨×ķ×¡×Ļ×Ķ": 2988,
      "×ľ×ĺ×Ķ": 2989,
      "65": 2990,
      "|×ª×¤×§×Ļ×ĵ": 2991,
      "Ġ×ŀ×©×¤×ĺ": 2992,
      "×ķ×ł×§": 2993,
      "×¨×ĳ×Ķ": 2994,
      "×ŀ×ļ": 2995,
      "Ġ×Ĳ×ķ×ł×Ļ×ĳ×¨×¡×Ļ×ĺ×ª": 2996,
      "×Ļ×ł×ĵ": 2997,
      "×Ļ×ĵ×ķ": 2998,
      "×ķ×¤×ķ×ľ": 2999,
      "Ġ×ŀ×ķ×ª×ķ": 3000,
      "low": 3001,
      "Ġ×Ķ×ŀ×ĸ": 3002,
      "ib": 3003,
      "Ġ×Ķ×ł×ķ×¢×¨": 3004,
      "Ġ×ľ×©×Ĺ×§": 3005,
      "Ġ×Ķ×Ĺ×ŀ": 3006,
      "Ġ×Ķ×Ľ×¨": 3007,
      "BA": 3008,
      "Ġ×ŀ×©×ŀ×¢×ķ×ª": 3009,
      "Ġ×©×ķ": 3010,
      "Ġ×§×Ļ×ľ": 3011,
      "ID": 3012,
      "-×¡": 3013,
      "Ġ×Ķ×ŀ×ĵ×Ļ×ł×ķ×ª": 3014,
      "Ġ×¤×¢×ŀ×Ļ×Ŀ": 3015,
      "185": 3016,
      "rael": 3017,
      "ith": 3018,
      "Ġ×Ķ×Ľ×ķ×ľ": 3019,
      "Ġ×ĵ×Ļ×ł": 3020,
      "×ķ×¦×Ĳ": 3021,
      "43": 3022,
      "Ġ×Ļ×ŀ×Ļ×Ŀ": 3023,
      "×Ĳ×¨×¥": 3024,
      "Ġbgcolor": 3025,
      "×¦×Ļ×Ĵ": 3026,
      "ork": 3027,
      "ran": 3028,
      "×Ļ×ŀ×Ļ×Ł": 3029,
      "Ġg": 3030,
      "Ġ×Ľ×ŀ×Ĳ": 3031,
      "-score": 3032,
      "×ĸ×Ļ×ľ": 3033,
      "Ġ×ķ×ŀ×¢": 3034,
      "Ġ×ķ×Ķ×Ĳ": 3035,
      "Ġ×ŀ×Ķ×Ŀ": 3036,
      "Ġ×ŀ×Ĳ×ķ×Ĺ×¨": 3037,
      "×ķ×ª×£": 3038,
      "last": 3039,
      ")ĊĊ": 3040,
      "×¡×ĺ×Ļ×ĳ×ľ": 3041,
      "×Ļ×ł×Ļ×Ļ×Ŀ": 3042,
      "Ġ×ª×§×ķ×¤×Ķ": 3043,
      "Ġ×Ĺ×ķ×ľ": 3044,
      "rom": 3045,
      "×Ĺ×ĳ": 3046,
      "Ġ×©×Ļ×©": 3047,
      "Ġ×ŀ×Ļ×Ŀ": 3048,
      "77": 3049,
      "×ł×Ļ×¡": 3050,
      "×§×ľ×Ĳ": 3051,
      "Ġ×ľ×ŀ×¨×ķ×ª": 3052,
      "edia": 3053,
      "×ķ×¨×©": 3054,
      "×ķ×¦×Ļ×Ŀ": 3055,
      "Ġ×ľ×Ľ×ª": 3056,
      "Ġ×Ĳ×Ķ": 3057,
      "\",Ċ": 3058,
      "Ġ×ĳ×Ĳ×ł": 3059,
      "Ġ×¤×ł×Ļ": 3060,
      "Ġ×Ľ×ķ×Ľ": 3061,
      "×©×Ļ×ŀ×ķ×©": 3062,
      "Ġ×§×ĵ": 3063,
      "ob": 3064,
      "×ľ×Ĳ×ķ×ŀ×Ļ": 3065,
      "Ġ×ķ×Ĵ×Ŀ": 3066,
      "Ġ×¡×ŀ": 3067,
      "Ġt": 3068,
      "Ġ×©×ł×Ļ×ķ×ª": 3069,
      "Ġ×§×ĳ×ķ×¦×Ķ": 3070,
      "Ġ×Ļ×Ķ×ķ×ĵ×Ķ": 3071,
      ".png": 3072,
      "Ġ×ķ×ĳ×¨": 3073,
      "×ķ×Ļ×Ļ×Ŀ": 3074,
      "68": 3075,
      "×Ĵ×ķ×¨×¨": 3076,
      "×Ĺ×ķ×¨": 3077,
      "|''": 3078,
      "\"×©": 3079,
      "ts": 3080,
      "Ġ×ŀ×ķ×¤": 3081,
      "×ª×ĳ": 3082,
      "×Ļ×¤×ľ": 3083,
      "Ġ×ł×Ļ×§": 3084,
      "×ĺ×¨×Ķ": 3085,
      "×ķ×¨×¡×Ŀ": 3086,
      "Ġ×Ķ×¨×Ĳ×©×ķ×ł×Ļ×Ŀ": 3087,
      "áĥ": 3088,
      "Ġ×Ĳ×ĸ×¨×Ĺ": 3089,
      "}},": 3090,
      "Ġ×¢×ľ×Ķ": 3091,
      "×ŀ×¨×ª": 3092,
      "Ġ×Ķ×§×ľ": 3093,
      "Ġ×Ļ×ķ×¡×£": 3094,
      "×ķ×Ļ×§×ĺ": 3095,
      "Ġ×Ķ×Ľ×ł×¡": 3096,
      "'×ķ": 3097,
      "Ġ×ĳ×¢×ķ×ł×ª": 3098,
      "article": 3099,
      "×ķ×ķ×Ĺ": 3100,
      ".a": 3101,
      "Ġ×ŀ×Ļ×ĵ×¢": 3102,
      "ire": 3103,
      "Ġ×ķ×ľ×Ľ×Ł": 3104,
      "×Ľ×Ļ×¨": 3105,
      "Ġ×Ķ×§×ŀ×ª": 3106,
      "Ġ×ł×ķ×ľ×ĵ×Ķ": 3107,
      "Ġ×Ķ×©×ª": 3108,
      "Ġ×Ľ×Ļ×Ķ×Ł": 3109,
      "Ġ×¡×ŀ×ľ": 3110,
      "Ġ×§×ĺ×Ł": 3111,
      "|access": 3112,
      "Ġ×§×¨×ĳ": 3113,
      "Ġ×Ķ×ł×¡": 3114,
      "×¡×Ļ×ª": 3115,
      "Ġ×Ĳ×ł×©×Ļ×Ŀ": 3116,
      "Ġ×§×ķ": 3117,
      "Ġ×ŀ×ķ×ĸ×Ļ×§×Ķ": 3118,
      "×ĵ×Ļ×Ļ×Ł": 3119,
      "ong": 3120,
      "Ġ×Ķ×ĳ×Ļ×ĺ": 3121,
      "×ŀ×ķ×§×¨×ĺ": 3122,
      "×Ļ×ł×Ļ×ķ×ª": 3123,
      "Ġ×ĳ×ŀ×Ļ×ķ×Ĺ×ĵ": 3124,
      "Ġre": 3125,
      "use": 3126,
      "Ġ×ł×ķ×¢×¨": 3127,
      "×ķ×Ĵ×Ķ": 3128,
      "×¦×¨×¤×ª": 3129,
      "|×Ĳ×¨×¦×ķ×ª": 3130,
      "\"{{": 3131,
      "Ġ×¡×Ļ×¤": 3132,
      "Ġ×Ľ×ľ×Ļ": 3133,
      "Ġ×ŀ×ķ×ĵ": 3134,
      "Ġ×Ĺ×ķ×ĵ": 3135,
      "Ġ×Ĳ×¤×¨×Ļ×§×Ķ": 3136,
      "×ł×Ļ×Ļ×Ķ": 3137,
      "Ġ×§×ĳ×ķ×¦×ķ×ª": 3138,
      "Ġ×ĳ×ŀ×¡×¤×¨": 3139,
      "×ĳ×Ł": 3140,
      "Ġ×Ķ×ķ×Ĺ": 3141,
      "Ġ×Ķ×ķ×§×ŀ×Ķ": 3142,
      "df": 3143,
      "Ġ×ĳ×ª×Ĺ×Ļ×ľ×ª": 3144,
      "=B": 3145,
      "Ġ×ĳ×ł×Ļ×ķ": 3146,
      "Ġ×©×ĸ": 3147,
      "Ġ×ĸ×¨": 3148,
      "usic": 3149,
      "×ķ×ľ×ŀ×Ļ×ª": 3150,
      "Ġ×ľ×Ļ×ŀ×ķ×ĵ×Ļ×ķ": 3151,
      "×ĳ×ŀ×Ķ×ľ×ļ": 3152,
      "×Ĵ×Ļ": 3153,
      "Ġ×Ľ×ķ×Ĺ×ķ×ª": 3154,
      "arm": 3155,
      "Ġ×Ķ×Ĳ×Ĺ×¨×ķ×Ł": 3156,
      "Ġ×ľ×ª×¤×§×Ļ×ĵ": 3157,
      "×Ķ×ŀ": 3158,
      "ry": 3159,
      "Ġ×ŀ×ŀ×ł×ķ": 3160,
      "tion": 3161,
      "irst": 3162,
      "Ġ×Ķ×ŀ×Ĺ×ķ×ĸ": 3163,
      "=|": 3164,
      "Ġ×¡×ĵ×¨×ª": 3165,
      "×§×¨×Ļ×Ŀ": 3166,
      "×¦×Ļ×Ŀ": 3167,
      "Ġ×ŀ×ĸ×¨×Ĺ": 3168,
      "Ġ×¤×¨×§": 3169,
      "Ġ×¢×ŀ×ķ×ĵ": 3170,
      "ind": 3171,
      "×ŀ×Ļ×¨": 3172,
      "Ġ×Ķ×ľ×ĳ": 3173,
      "×ķ×¢×ĵ×Ķ": 3174,
      "Ġ×Ķ×ŀ×ŀ×©×ľ×Ķ": 3175,
      "×¢×ĳ×¨": 3176,
      "Ġ×Ľ×ķ×Ĺ": 3177,
      "ĠAr": 3178,
      "nd": 3179,
      "×©×ª×ª": 3180,
      "ich": 3181,
      "×ĵ×Ļ×ķ×Ł": 3182,
      "|}ĊĊ": 3183,
      "×Ļ×¢×ķ×ª": 3184,
      "Ġ×¡×ķ×ľ": 3185,
      "'×ª": 3186,
      "×Ļ×¡×ĺ×Ļ×ª": 3187,
      "Ġ×©×Ĳ×¨": 3188,
      "nowiki": 3189,
      "×ŀ×ķ×Ļ×ķ×ª": 3190,
      "×ł×Ĵ×ĵ": 3191,
      "×ķ×§×ª": 3192,
      "Ġ×Ķ×Ļ×Ķ×ķ×ĵ×Ļ×Ŀ": 3193,
      "Ġ×ķ×Ķ×¢": 3194,
      "Ġ×Ĺ×Ļ×Ļ×ľ": 3195,
      "ain": 3196,
      "×ĸ×Ļ×Ķ": 3197,
      "Ġ×Ĺ×ĳ×¨×Ļ": 3198,
      "ĠĠĊ": 3199,
      "Ġ×Ĺ×ķ×¤×©×Ļ": 3200,
      "Ġ×Ĳ×ĳ×¨×Ķ×Ŀ": 3201,
      "Ġ×ŀ×ķ×Ĺ": 3202,
      "×ķ×ķ×Ļ×ª": 3203,
      "ah": 3204,
      "Ġ×Ķ×ľ×Ĳ×ķ×ŀ×Ļ": 3205,
      "×Ĵ×ķ×ĳ×Ķ": 3206,
      "Ġ×ĳ×ŀ×¤": 3207,
      "Ġ×Ķ×¨×ķ×¡×Ļ×ª": 3208,
      "Ġ×¡×¤×¨×Ļ×Ŀ": 3209,
      "×Ķ×Ĺ": 3210,
      "Ġ×ľ×Ķ×¤": 3211,
      "Ġ×Ķ×Ĳ×ĸ×ķ×¨": 3212,
      "×Ĳ×ł×Ĵ×ľ×Ļ×ª": 3213,
      "/s": 3214,
      "Ġ×Ķ×Ľ×¤×¨": 3215,
      "×§×Ļ×¢": 3216,
      "Ġ×©×Ļ×Ĳ": 3217,
      "Ðº": 3218,
      "×ķ×§×Ŀ": 3219,
      "×ķ×§×ķ": 3220,
      "×ķ×¤×¡×ķ×¨": 3221,
      "Ġ×ŀ×Ľ×ľ": 3222,
      "Ġ×Ķ×Ĵ×ĵ×ķ×ľ×Ķ": 3223,
      "Ġ×ĳ×ª×§×ķ×¤×ª": 3224,
      "×Ĵ×ľ×Ļ×Ŀ": 3225,
      "×ŀ×ł×ĺ": 3226,
      "Ġ×ĳ×ķ×ľ×ĺ": 3227,
      "Ġ×Ķ×Ĳ×¡": 3228,
      "Ġ×©×ŀ×©": 3229,
      "ug": 3230,
      "Ġ×ŀ×§×¡": 3231,
      "Ġ×©×ĳ×ķ×¢": 3232,
      "Ġ×©×ŀ×¢": 3233,
      "×ķ×ĸ×Ļ×§": 3234,
      "Ġ×¨×Ĳ×©×ķ×ł×Ķ": 3235,
      "Ġ×Ķ×ŀ×ľ×ļ": 3236,
      "|×©×¤×Ķ": 3237,
      "×ł×ĳ": 3238,
      "Ġ×ĳ×¨×Ĳ": 3239,
      "Ġ×Ļ×Ĺ×Ļ×ĵ×Ķ": 3240,
      "Ġ×ķ×Ĳ×Ĺ×¨": 3241,
      "one": 3242,
      "Ġ×¢×ĳ×¨×Ķ": 3243,
      "×§×ľ×Ļ×ĺ×Ļ×Ŀ": 3244,
      "×©×Ļ×ª": 3245,
      "×Ļ×Ĺ×¡×Ļ×Ŀ": 3246,
      "Ġ×ķ×Ķ×Ĺ": 3247,
      ".b": 3248,
      "×ŀ×Ŀ": 3249,
      "Ġ×ĳ×Ļ×©": 3250,
      "Ġ×ľ×¤×¢": 3251,
      "×ķ×ķ×Ļ×Ŀ": 3252,
      "×ķ×ľ×ł×ĵ": 3253,
      "×ķ×ľ×Ļ×ŀ×¤×Ļ×Ĳ×ĵ×ª": 3254,
      "×ł×ĺ×Ļ": 3255,
      "×ķ×¨×Ł": 3256,
      ".c": 3257,
      "Ġ×ĺ×ĳ×¢": 3258,
      "×©×§": 3259,
      "180": 3260,
      "×Ļ×¤×Ļ×Ŀ": 3261,
      "×ķ×ķ×Ļ×Ł": 3262,
      "ĠĊĠĊĠĊĠĊ": 3263,
      "Ġ×ĳ×¢×ķ×ĵ": 3264,
      "Ġ×ł×Ĺ×©×ĳ": 3265,
      "Ġ×Ľ×ŀ×Ĳ×ŀ×Ł": 3266,
      "Ġ×ŀ×ĵ×Ļ×ł×ķ×ª": 3267,
      "%\"Ċ": 3268,
      "Ġ×ľ×ĳ×¨": 3269,
      "Ġ×ª×¤": 3270,
      "×ĸ×ľ": 3271,
      "Ġfor": 3272,
      "×Ĳ×ł×Ļ": 3273,
      "ex": 3274,
      "Ġ×ł×ķ×¡×¤×ķ×ª": 3275,
      "-date": 3276,
      "Ġ×ĵ×ª": 3277,
      "×Ļ×¦×Ļ×¨×Ķ": 3278,
      "/|": 3279,
      "×ķ×Ľ×ķ×ª": 3280,
      "×ĸ×ŀ×ķ×¨×ª": 3281,
      "Ġ+": 3282,
      "×ķ×Ĵ×¨×¤×Ļ×Ķ": 3283,
      "Ġ×ľ×©×¢×ĳ×¨": 3284,
      "Ġ×ķ×ŀ×Ĺ": 3285,
      "Ġ×Ķ×Ļ×ª×¨": 3286,
      "Ġ×©×¢×¨": 3287,
      "×Ĳ×¨×Ļ": 3288,
      "×ķ×ł×ª×ķ": 3289,
      "×Ļ×¡×ĺ×ķ×¨": 3290,
      "×Ļ×Ĳ×Ŀ": 3291,
      ".m": 3292,
      "×Ļ×¡×§": 3293,
      "Ġ×©×¡": 3294,
      "Ġ×Ľ×Ĺ×ľ×§": 3295,
      "-×¢": 3296,
      "Ġ×Ķ×Ĳ×ĵ×Ŀ": 3297,
      "Ġ×¡×ķ×£": 3298,
      "ef": 3299,
      "Ġ×ŀ×Ķ×Ĳ": 3300,
      "Ġ×Ķ×ĺ×ķ×ĳ": 3301,
      "×ķ×¡×¡": 3302,
      "×§×¢": 3303,
      "Ġ×Ķ×ª×Ļ": 3304,
      "type": 3305,
      "Ġ×§×©×¨": 3306,
      "ho": 3307,
      "×§×ķ×ľ": 3308,
      "×Ļ×¤×ķ": 3309,
      "Ġ×ĳ×ª×Ļ": 3310,
      "Ġ×ŀ×ĺ×¢×Ŀ": 3311,
      "×ĳ×ķ×¨×Ķ": 3312,
      "×ķ×Ĵ×Ļ×Ŀ": 3313,
      "=×ŀ": 3314,
      "×Ľ×ķ×ª×¨×ª": 3315,
      "Ġ×ĳ×Ķ×Ł": 3316,
      "Ġ×©×ł×¢×¨×Ľ×Ķ": 3317,
      "×Ļ×ĺ×ľ×§": 3318,
      "×¦×ĺ": 3319,
      "Ġ×Ķ×Ļ×©×¨×Ĳ×ľ": 3320,
      "ear": 3321,
      "Ġ×¨×¢": 3322,
      "×¨×Ľ×ĳ": 3323,
      "Ġ×ł×Ĺ×©": 3324,
      "Ġ×Ķ×ķ×§×Ŀ": 3325,
      "76": 3326,
      "×¦×ĳ": 3327,
      "×ķ×¤×Ļ×ª": 3328,
      "Ġ×¦×ĵ": 3329,
      "Ġ×ĳ×ª×Ĺ×¨×ķ×ª": 3330,
      "Ġ×ŀ×ķ×¤×Ļ×¢": 3331,
      "uk": 3332,
      "\")": 3333,
      "Ġ×¡×ł": 3334,
      "Ġ×©×¤×Ķ": 3335,
      "Ġ×Ķ×ŀ×ŀ×ľ×Ľ×Ķ": 3336,
      "Ġ×ł×Ľ×ł×¡": 3337,
      "150": 3338,
      "Ð»": 3339,
      "ant": 3340,
      ":#": 3341,
      "98": 3342,
      "'.": 3343,
      "×ł×ķ×¢×ª": 3344,
      "×ķ×¨×ł×Ļ×¨": 3345,
      "Ġ×¡×¤×¨×ĵ": 3346,
      "×Ļ×ĳ×ķ×©": 3347,
      "×ķ×ĵ×¢": 3348,
      "Ġ×ĳ×Ļ×ł×Ļ×Ķ×Ŀ": 3349,
      "}}}}.": 3350,
      "Ġ×ĳ×ľ×Ļ×Ĵ×Ķ": 3351,
      "Ġ×Ķ×Ĺ×ĵ×©×Ķ": 3352,
      "ee": 3353,
      "×Ļ×ł×Ĵ×ĺ×ķ×Ł": 3354,
      "Ġ×ĳ×¢×ĳ×¨": 3355,
      "×ł×Ŀ": 3356,
      "×Ļ×ķ×ķ×Ļ×ĸ×Ļ×Ķ": 3357,
      "×Ľ×©": 3358,
      "li": 3359,
      "Ġ×¤×¢×Ŀ": 3360,
      "Ġ×ĵ×¨×ķ×Ŀ": 3361,
      "com": 3362,
      "Ġ×ŀ×ĵ×¢×Ļ": 3363,
      "Ġ×¨×©×ª": 3364,
      "×ĸ×¨×Ĺ": 3365,
      "Ġ×§×ķ×ĵ×Ŀ": 3366,
      "Ġ×Ĳ×ł×ĵ×¨": 3367,
      "Ġ×Ķ×Ĵ×ŀ×¨": 3368,
      "=×ª": 3369,
      "Ġ×ĳ×¡×ĵ×¨×Ķ": 3370,
      "Ġ×Ĳ×Ļ×ľ": 3371,
      "Ġ×¤×ł": 3372,
      "Ġ×Ľ×ķ×ª": 3373,
      "Ġ×ł×Ļ": 3374,
      "×Ľ×ķ×ľ": 3375,
      "orld": 3376,
      "Ġ×ķ×ĳ×Ĳ": 3377,
      "ook": 3378,
      "Ġ×Ĳ×¨×Ĵ": 3379,
      "×¨×Ĳ×ķ": 3380,
      "Ġ×ŀ×©×Ĺ×§×Ļ×Ŀ": 3381,
      "Ġ×Ķ×ŀ×©×¤×Ĺ×Ķ": 3382,
      "×ķ×¤×ĺ": 3383,
      "}}}}Ċ": 3384,
      "183": 3385,
      "×ŀ×¨×§": 3386,
      "×¨×ĳ×Ļ×Ŀ": 3387,
      "Ġ×Ķ×Ĵ×¨×ŀ×ł×Ļ×ª": 3388,
      "ÙĦ": 3389,
      "Ġ×Ĳ×ł×©×Ļ": 3390,
      "×ĸ×Ļ×Ł": 3391,
      "Ġ×©×Ķ×Ŀ": 3392,
      "×ķ×ŀ×Ļ×ķ×ª": 3393,
      "Ġ×ĳ×ŀ×Ĵ": 3394,
      "Ġ×ľ×¨×ķ×ĳ": 3395,
      "Ġ×ľ×ŀ×©×ľ": 3396,
      "×ĳ×Ļ×ĳ": 3397,
      "Ġ×Ķ×ŀ×ľ×Ľ×ķ×ª": 3398,
      "×ķ×¦×¨×Ļ×Ŀ": 3399,
      "/h": 3400,
      "×ķ×¡×Ķ": 3401,
      "Ġ×Ķ×©×¤": 3402,
      "Ġ×Ĳ×ŀ×¨×Ļ×§": 3403,
      "ass": 3404,
      "ĠĠĠ": 3405,
      "Ġ×ŀ×ĵ×Ļ": 3406,
      "×ķ×¡×¨": 3407,
      "ide": 3408,
      "Ġ×¢×ĳ×¨×Ļ": 3409,
      "×ł×Ĳ": 3410,
      "×Ļ×Ĺ×ķ×ª": 3411,
      "×Ļ×ĳ×ķ×¥": 3412,
      "Ġ×Ķ×ª×Ļ×Ľ×ķ×Ł": 3413,
      "Ġ×Ĳ×ķ×ĺ": 3414,
      "land": 3415,
      "Ġ×ĳ×ŀ×¨×Ľ×ĸ": 3416,
      "×©×ª×Ļ": 3417,
      "dis": 3418,
      "Ġ×ĺ×ķ×ĳ": 3419,
      "×¡×§×Ķ": 3420,
      "Ġ×ľ×ľ×ŀ×ķ×ĵ": 3421,
      "Ġ×ł×ŀ": 3422,
      "Ġ×ª×ľ×ŀ×Ļ×ĵ": 3423,
      "Ġ×¢×ķ×¨": 3424,
      "ction": 3425,
      "Ġ×ĳ×ķ×¨": 3426,
      "Ġ×ŀ×ª×Ĺ×ª": 3427,
      "Ġ×©×ł×Ļ×Ļ×Ķ": 3428,
      "×Ĵ×Ļ×Ķ": 3429,
      "vi": 3430,
      "Ġ×ĳ×§×ĳ×ķ×¦×Ķ": 3431,
      "Ġ×©×Ķ×Ļ×ķ": 3432,
      "×ķ×ķ×Ļ×Ļ×¥": 3433,
      "Ġ×Ķ×Ĵ×ĳ×ķ×Ķ": 3434,
      "Ġ×ĳ×ª×ķ×¨": 3435,
      "×ķ×¢×Ķ": 3436,
      "Ġ×Ķ×§×ķ×¨": 3437,
      "Ġ×ĳ×Ķ×¦": 3438,
      "×ŀ×ĸ×¨×Ĺ": 3439,
      "Ġ×ľ×ŀ×Ĳ": 3440,
      "Ġ×¤×ķ×¨×ĺ×ľ": 3441,
      "×ĳ×Ļ×Ĳ": 3442,
      "×ł×ĵ×Ļ": 3443,
      "51": 3444,
      "ment": 3445,
      "ŀ×ķ": 3446,
      "×ŀ×ĵ×Ļ×ł×Ķ": 3447,
      "Ġ×Ľ×ŀ×¢×ĺ": 3448,
      "×Ļ×ľ×ĵ": 3449,
      "Ġ×ŀ×Ĵ×Ļ×¢": 3450,
      "Ġ×Ķ×ķ×ĳ": 3451,
      "Ġ×ĳ×ŀ×ĵ×ľ×Ļ×Ļ×ª": 3452,
      "×Ĺ×§×ł×Ļ×Ŀ": 3453,
      "Ġ×Ķ×Ļ×Ļ×©×ķ×ĳ": 3454,
      "Ġ×Ķ×Ļ×©×¨×Ĳ×ľ×Ļ": 3455,
      "Ġ×¡×¤×ķ×¨×ĺ": 3456,
      "×ķ×¢×Ļ": 3457,
      "Ġ×©×Ļ×¦": 3458,
      "Ġ×Ĳ×Ļ×ĺ×ľ×Ļ×Ķ": 3459,
      ">(": 3460,
      ".n": 3461,
      "×ķ×©×ĳ×Ļ": 3462,
      "=D": 3463,
      "×ł×Ļ×ª×Ł": 3464,
      "Ġ×Ķ×§×Ķ×Ļ×ľ×Ķ": 3465,
      "Ġpattern": 3466,
      "Ġ×§×©": 3467,
      "Ġ×Ķ×Ĺ×ľ×ľ": 3468,
      "ens": 3469,
      "×§×Ł": 3470,
      "/c": 3471,
      "×Ĵ×Ļ×ľ": 3472,
      "Ġ×©×Ķ×Ļ×Ļ×ª×Ķ": 3473,
      "|×ŀ×©": 3474,
      "Ġ×¡×Ĵ": 3475,
      "×¨×ķ×Ł": 3476,
      "Ġ×ŀ×ł×Ķ×ľ": 3477,
      "×ŀ×ŀ×ŀ×ķ": 3478,
      "Ġ×Ĳ×ķ×¡": 3479,
      "×¡×ŀ×ľ": 3480,
      "Ġ×Ĺ×Ļ×¤×Ķ": 3481,
      "|×¤×¨": 3482,
      "Ġ×ŀ×¤×ľ": 3483,
      "Ġ×¤×Ļ×ł": 3484,
      "AA": 3485,
      "sub": 3486,
      "×Ļ×¤×ķ×¨×ł×Ļ×Ķ": 3487,
      "×ľ×Ĺ×Ļ×Ł": 3488,
      "Ö¸Ö¼": 3489,
      "×¤×Ĵ": 3490,
      "Ġ×Ķ×ŀ×ķ×¢×ĵ×ķ×Ł": 3491,
      "Ġ×¡×Ĳ": 3492,
      "52": 3493,
      "Ġ×Ķ×Ķ×¦": 3494,
      "Ġ×ł×Ľ×ª×ĳ": 3495,
      "Ġ×Ķ×Ĺ×Ļ×Ļ×Ŀ": 3496,
      "Ġ×Ķ×ł×Ĳ×¦": 3497,
      "Ġ×Ľ×ĵ": 3498,
      "ĠAl": 3499,
      "Ġ×ķ×Ļ×§×Ļ×¤×ĵ×Ļ×Ķ": 3500,
      "×¡×ĵ×¨×ª": 3501,
      "Ġ×Ĵ×ĵ×ķ×ľ×Ķ": 3502,
      "Ġ×ł×Ļ×Ķ": 3503,
      "Ġ×ĳ×§×¨": 3504,
      "Ġ×©×ķ×ł×Ķ": 3505,
      "×Ľ×ļ": 3506,
      "ach": 3507,
      "Ġ×ŀ×Ĺ×ľ": 3508,
      "Ġ×ķ×Ĳ×¨": 3509,
      "181": 3510,
      "=×Ķ×Ļ×¡": 3511,
      "|N": 3512,
      "Ġ×Ķ×ĺ×ľ×ķ×ķ×Ļ×ĸ×Ļ×Ķ": 3513,
      "FFFF": 3514,
      "Ġ{Ċ": 3515,
      "ey": 3516,
      "Ġ×ľ×ŀ×¢×ľ×Ķ": 3517,
      "Ġ×Ľ×Ķ×Ł": 3518,
      "Ġ×Ĳ×ľ×Ļ×ķ": 3519,
      ".asp": 3520,
      "×¤×Ĳ": 3521,
      "ath": 3522,
      "Ġ×Ĵ×ĳ×Ļ×¢": 3523,
      "94": 3524,
      "×Ĳ×ł×Ĵ": 3525,
      "Ġ×ĺ×ķ×¨": 3526,
      "Ġ×Ĳ×ŀ×¨×Ļ×§×Ķ": 3527,
      "Ġ×Ķ×ª×ķ×Ľ×ł×Ļ×ª": 3528,
      "×§×ĳ×ľ": 3529,
      "Ġ×Ķ×ŀ×©×Ļ×ļ": 3530,
      "Ġ×Ķ×Ĺ×ľ×ķ": 3531,
      "Ġ×¤×©": 3532,
      "×Ĳ×¨×§×ĺ": 3533,
      "96": 3534,
      "\"×ķ": 3535,
      "Ġ×ĳ×¦×ķ×¨×Ķ": 3536,
      "Ġ×ĵ×Ĳ": 3537,
      "Ġ×©×ľ×ŀ×Ķ": 3538,
      "Ġ×§×ķ×ĵ×ŀ×ª": 3539,
      "×Ķ×Ķ": 3540,
      "×Ļ×Ĺ×Ļ×ĵ×Ķ": 3541,
      "ĠTh": 3542,
      "97": 3543,
      "×ĵ×¨×Ĵ×Ķ": 3544,
      ".gov": 3545,
      "53": 3546,
      "×Ļ×¢×ª": 3547,
      "Ġ×Ĳ×¨×Ĵ×ķ×Ł": 3548,
      "×ŀ×¨×Ļ×Ŀ": 3549,
      "×ł×ķ×ľ×ĵ": 3550,
      "×ķ×Ĳ×¨×ĵ": 3551,
      "iss": 3552,
      "Ġ×¦×¢": 3553,
      "'Ċ": 3554,
      "×Ľ×ķ×ª×ĳ": 3555,
      "×Ļ×ĵ×ķ×ľ": 3556,
      "Ġ×ŀ×§×¦×ķ×¢": 3557,
      "Ġ×ķ×ķ": 3558,
      "Ġ×ĵ×Ļ×Ł": 3559,
      ".h": 3560,
      "arent": 3561,
      "Ġ×Ķ×Ĺ×ĸ": 3562,
      "Ġ×¢×ķ×ł×Ķ": 3563,
      "...": 3564,
      "Ġ×¦×ľ": 3565,
      "×Ĵ×ĳ": 3566,
      "lang": 3567,
      "Ġ×Ĳ×¨×¥": 3568,
      "×ķ×©×¨": 3569,
      "Ġ×ĳ×ŀ×ĳ": 3570,
      "Ġtran": 3571,
      "×¤×©×ĺ": 3572,
      "Ġ×Ķ×Ļ×Ķ×ķ×ĵ×Ļ": 3573,
      "×Ļ×¤×ķ×ľ": 3574,
      "Ġ×ķ×Ķ×¦": 3575,
      "Ġ×ľ×Ĳ×¨": 3576,
      "×©×¨×ª": 3577,
      "\"×Ļ": 3578,
      "ress": 3579,
      "Ġ×¤×ª×Ĺ": 3580,
      "/w": 3581,
      "\"×ĺ": 3582,
      "Ġ×Ĳ×Ĺ×Ļ×ķ": 3583,
      "×Ļ×¨×ª×ķ": 3584,
      "×Ļ×Ĵ×¨": 3585,
      "×ĵ×ķ×ĵ": 3586,
      "/article": 3587,
      "Ġ×Ĳ×§": 3588,
      "'×§": 3589,
      "'×Ļ×Ļ×ŀ×¡": 3590,
      "'×Ĳ×¨": 3591,
      "Ġ×Ľ×¡×£": 3592,
      "Ġ×Ķ×ķ×ł×Ĵ×¨×Ļ×Ķ": 3593,
      "'×ľ": 3594,
      "×¦×Ļ×ª": 3595,
      "×ĺ×¨×Ļ": 3596,
      "IS": 3597,
      "Ġ×©×Ļ×¨×ª": 3598,
      "Ġ×¦×¤×Ļ×¤×ķ×ª": 3599,
      "Ġ×Ĳ×ľ×Ľ×¡×ł×ĵ×¨": 3600,
      "Ġ×Ĺ×ĳ×¨×Ķ": 3601,
      "Ġ×ľ×Ĺ×ľ": 3602,
      "|×¡×ĺ": 3603,
      "×Ļ×ł×ķ×¡": 3604,
      "Ġ×Ĳ×ľ×Ļ×Ķ": 3605,
      "only": 3606,
      "×ł×©": 3607,
      "Ġ×¢×ł": 3608,
      "Ġ×Ķ×§×¨×Ļ×Ļ×¨×Ķ": 3609,
      "×ķ×ĵ×ł×ĺ": 3610,
      "Ġ×Ķ×¡×ª": 3611,
      "×¤×Ĺ×ķ×ª": 3612,
      "'×Ĳ": 3613,
      "Ġ×ŀ×ķ×¢×ŀ×ĵ": 3614,
      "Ġ×¡×ĳ×Ļ×ĳ": 3615,
      "Ġ×ĳ×Ĳ×ķ×ª×ķ": 3616,
      "Ġ×ľ×Ĳ×¨×¥": 3617,
      "×Ĳ×©×¨": 3618,
      "Ġ×¢×ķ×ł×ķ×ª": 3619,
      "×ł×¨×ľ": 3620,
      "Ġ×Ķ×ķ×Ľ": 3621,
      "Ġ×ĳ×Ļ×Ĺ×ĵ": 3622,
      "Ġ×Ķ×¨×ĳ×Ļ×¢×Ļ": 3623,
      "Ġ×ľ×§×¨": 3624,
      "for": 3625,
      "Ġ×Ļ×ķ": 3626,
      "400": 3627,
      "Ġ×ľ×©×Ŀ": 3628,
      "les": 3629,
      "Ġ×ķ×¤×¨": 3630,
      "×Ļ×ŀ×ĵ": 3631,
      "Ġ×Ĳ×©×ª×ķ": 3632,
      "ond": 3633,
      "×Ļ×ĵ×Ł": 3634,
      "×ķ×ľ×ĵ×ķ×ª": 3635,
      "=×¢×Ļ×¨": 3636,
      "54": 3637,
      "EF": 3638,
      "Ġ×¤×¨×ł×§": 3639,
      "×¤×Ļ×Ļ×Ŀ": 3640,
      "×ķ×§×¨×Ĳ×Ļ×ł×Ķ": 3641,
      "Ġ×Ĺ×ķ×ĵ×©×Ļ×Ŀ": 3642,
      "×ł×ª×¨": 3643,
      "Ġ×Ķ×ª×Ļ×Ĳ×ķ×¨": 3644,
      "Ġ×ķ×Ķ×Ĺ×ľ": 3645,
      "|×§×ĳ×ķ×¦×Ķ": 3646,
      "Ġ×©×Ĵ×¨": 3647,
      "×ķ×¡×ĺ×¨×ľ×Ļ×Ķ": 3648,
      "srael": 3649,
      "Ġ×Ķ×Ļ×Ķ×ķ×ĵ×Ļ×ª": 3650,
      "×ŀ×ķ×¡": 3651,
      "Ġ×¢×ĳ×ķ×ĵ×Ķ": 3652,
      "Ġ×ŀ×Ĺ×§×¨": 3653,
      "Ġ×ĳ×Ľ×ļ": 3654,
      "Ġ×Ĳ×ĺ": 3655,
      "Ġ×ŀ×¡×ķ×Ĵ": 3656,
      "Ġ×ŀ×ĵ×¨": 3657,
      "×ł×ĸ": 3658,
      "×¢×¨×Ļ×Ŀ": 3659,
      "Ġ×Ķ×ĺ×¨": 3660,
      "Ġ×Ķ×¨×ĳ×Ķ": 3661,
      "Ġ×Ķ×¤×Ľ×Ķ": 3662,
      "-×§": 3663,
      "Ġ×§×Ļ×ľ×ķ×ŀ×ĺ": 3664,
      "Ġ×Ĺ×ĺ": 3665,
      "Ġ×¤×Ĵ": 3666,
      "Ġ×ľ×Ļ×ľ": 3667,
      "Ġ×¤×¨×©": 3668,
      "Ġ×Ľ×ª×ķ×¦×Ĳ×Ķ": 3669,
      "<ref": 3670,
      "Ġ×Ľ×ĳ×©": 3671,
      "×ŀ×ĵ×Ķ": 3672,
      "Ġ×ķ×Ķ×Ŀ": 3673,
      "=×Ĵ": 3674,
      "Ġ×¤×¨×Ļ×ĵ": 3675,
      "=G": 3676,
      "Ã¡": 3677,
      "ice": 3678,
      "Ġ×¤×Ļ×§": 3679,
      "Ġ×Ķ×ķ×¡": 3680,
      "Ġ×ķ×ŀ×Ľ": 3681,
      "Ġ×ŀ×Ľ×Ļ×ķ×ķ×Ł": 3682,
      "×Ķ×§": 3683,
      "×ķ×ŀ×¨×Ļ×Ŀ": 3684,
      "×ķ×Ļ×§": 3685,
      "ence": 3686,
      "Ġ×Ĳ×ł×Ĵ": 3687,
      "Ġ×ĵ×ķ×ŀ×Ķ": 3688,
      "×Ļ×ĳ×Ĳ": 3689,
      "×ķ×ŀ×¦": 3690,
      "Ġ×Ľ×Ľ×ľ": 3691,
      "×ķ×ĳ×Ł": 3692,
      "×Ļ×¡×Ļ": 3693,
      "Ġ×Ķ×©×ŀ": 3694,
      "Ġ×ŀ×Ľ×ĳ×Ļ": 3695,
      "Ġ×Ķ×¡×¤": 3696,
      "300": 3697,
      "Ġ×Ķ×¢×ľ×Ļ×ķ×Ł": 3698,
      "×Ľ×ĵ×ķ×¨×¡×ľ": 3699,
      "-N": 3700,
      "×Ĺ×ĸ": 3701,
      "Ġ×Ļ×Ŀ": 3702,
      "Ġ×ŀ×©×¤×Ĺ×ª×ķ": 3703,
      "×Ļ×©×ķ×ª": 3704,
      "×Ľ×ľ×Ļ": 3705,
      "×ł×ª×Ķ": 3706,
      "Ġ×¢×ĵ×Ļ×Ļ×Ł": 3707,
      "aw": 3708,
      "Ġ×ĳ×¢×ĸ×¨×ª": 3709,
      "arg": 3710,
      "Ġ×©×ŀ×Ķ": 3711,
      "Ġ×©×Ļ×¢": 3712,
      "Ġ×Ķ×¨×¤×ķ×ĳ×ľ×Ļ×§×Ķ": 3713,
      "Ġ×Ĳ×¨×ĳ×¢×Ķ": 3714,
      "Ġ×ŀ×ķ×ª": 3715,
      "Ġ×Ķ×§×Ļ×Ŀ": 3716,
      "sparent": 3717,
      "Ġ×ĳ×ŀ×¦×¢×ĵ": 3718,
      "Ġ×ª×ª": 3719,
      "Ġ×ĳ×Ľ×¤×¨": 3720,
      "Ġ×ĳ×ł×Ļ×¦×Ĺ×ķ×Ł": 3721,
      "Ġ×Ķ×§×ķ×ł": 3722,
      "Ġ×Ĳ×ł×Ļ": 3723,
      "×¡×¨×Ļ×ĺ": 3724,
      "×Ļ×ł×ķ×Ļ×Ļ×Ŀ": 3725,
      "Ġ×©×Ļ×¨×Ļ×Ŀ": 3726,
      "×Ļ×ª×Ķ": 3727,
      "444": 3728,
      "×ľ×ĺ×ķ×ª": 3729,
      "Ġ×ŀ×©×ª": 3730,
      "Ġ×ľ×¤×¨×¡": 3731,
      "Ġ×ľ×ŀ×¤×§×ĵ": 3732,
      "ooks": 3733,
      "mer": 3734,
      "Ġ×Ķ×ł×©×Ļ×Ĳ": 3735,
      "Ġ×ĳ×¢×¦": 3736,
      "Ġ×Ķ×¨×Ĺ": 3737,
      "×¤×©": 3738,
      "Ġ×¡×Ļ×Ļ×ŀ×Ķ": 3739,
      "ublish": 3740,
      "CC": 3741,
      "Ġ×¤×ĺ×¨": 3742,
      "ult": 3743,
      "182": 3744,
      "Ġ×¢×ĺ×Ļ×¤×ª": 3745,
      "×ķ×ľ×ķ": 3746,
      "lag": 3747,
      "×ķ×ľ×ķ×Ĵ×Ļ": 3748,
      "×ķ×ľ×Ļ×Ł": 3749,
      "×Ļ×¦×ª": 3750,
      "×Ļ×ĳ×Ļ×ª": 3751,
      "×ĳ×Ļ×Ķ": 3752,
      "Ġ×Ķ×ĸ×ŀ×Ł": 3753,
      "=F": 3754,
      "/news": 3755,
      "Ġ×Ĺ×ĳ×¨×ķ×ª": 3756,
      "=×ľ": 3757,
      "×ķ×©×Ĳ×Ļ×Ŀ": 3758,
      "Ġ×ĳ×Ĺ×ľ×§": 3759,
      "Ġ×ľ×¢×Ļ×¨": 3760,
      "\".{{": 3761,
      "Ġ×ĳ×Ĵ×ľ×ľ": 3762,
      "91": 3763,
      "×Ļ×Ĳ×¨": 3764,
      "Ġ×ĳ×ķ×ķ": 3765,
      "Ġ×ĳ×©×ľ×ĳ": 3766,
      "×Ľ×ĺ": 3767,
      "×Ļ×Ĺ×ª": 3768,
      "Ġ×ĳ×ķ×ĵ": 3769,
      "Ġ×Ļ×¡": 3770,
      "×Ļ×ĵ×Ĳ×ķ": 3771,
      "Ġ×ķ×Ļ×¨": 3772,
      "Ġ×ľ×Ļ×Ĵ×Ķ": 3773,
      "Ġ×ŀ×¦×ĵ": 3774,
      "ica": 3775,
      "×¤×ķ×Ĳ×Ķ": 3776,
      "Ġ×ľ×Ķ×§": 3777,
      "Ġ×Ĳ×Ļ×ł×Ķ": 3778,
      "×ķ×ĺ×Ļ×Ŀ": 3779,
      "Ġ×§×ķ×ĳ×¥": 3780,
      "includeonly": 3781,
      "Ġ×Ķ×©×ľ×Ļ×©×Ļ×ª": 3782,
      "oy": 3783,
      "Ġ×ķ×ĳ×ª": 3784,
      "Ġ×ŀ×ŀ×ł×Ķ": 3785,
      "Ġ×ĳ×¡×ĵ×¨×ª": 3786,
      "Ġtransparent": 3787,
      "×ķ×¦×Ĳ×ª": 3788,
      "Ġ×ŀ×¢×ĺ": 3789,
      "=R": 3790,
      "=×ĵ": 3791,
      "Ö°Ö¼": 3792,
      "?Ċ": 3793,
      "Ġ×Ľ×¤": 3794,
      "Ġ×ŀ×ķ×ĸ×Ļ×§": 3795,
      "Ġ×ŀ×ĳ×Ĺ": 3796,
      "Ġ×Ķ×Ĳ×ķ×¡×ĺ×¨": 3797,
      "×ķ×¨×ķ×ķ×Ĵ": 3798,
      "×Ļ×ŀ×ĺ": 3799,
      "×Ļ×ŀ×ķ×¨": 3800,
      "=×Ĺ": 3801,
      "×ķ×¡×ľ": 3802,
      "|×©×ł×Ļ×Ŀ": 3803,
      "×ĳ×Ĳ×ľ": 3804,
      "=T": 3805,
      "|×¡×Ļ×ł×Ĵ×ľ": 3806,
      "Ġ×Ĵ×ĳ×¨×Ļ×Ŀ": 3807,
      "Ġ×ŀ×Ĳ×Ļ×¨": 3808,
      "Ġ×ĳ×§×ĳ×ķ×¦×ª": 3809,
      "Ġ×¦×ķ×ķ×ª": 3810,
      "reen": 3811,
      "×ķ×ĳ×ķ": 3812,
      "×ķ×Ĺ×Ļ×Ŀ": 3813,
      "×Ļ×¡×ĺ×Ł": 3814,
      "=L": 3815,
      "Ġ×ľ×ŀ×©×Ĺ×§": 3816,
      "Ġ×¤×¨×¡×Ŀ": 3817,
      "Ġ×Ĳ×ŀ×ł×ķ×ª": 3818,
      "Ġ×Ķ×Ĳ×ķ×¤": 3819,
      "×Ļ×ķ×¡": 3820,
      "ages": 3821,
      "Ġ×ľ×ķ×Ĺ": 3822,
      "×ķ×¨×¨": 3823,
      "Ġ×Ķ×Ĳ×Ĵ": 3824,
      "=en": 3825,
      "Ġ×ĳ×ľ×ª×Ļ": 3826,
      "Ġ×Ĳ×ľ×§": 3827,
      "Ġ×ľ×ķ×Ĳ": 3828,
      "×ĵ×Ļ×ª": 3829,
      "|×Ļ×©×¨×Ĳ×ľ": 3830,
      "Ġ×ķ×Ĳ×ľ": 3831,
      "Ġ×Ĳ×¨×ĳ×¢": 3832,
      "Ġ×¢×ķ×ŀ×ĵ": 3833,
      "=×¢": 3834,
      "Ġ×¨×ķ×§": 3835,
      "Ġ×Ķ×ŀ×¨": 3836,
      "Ġ×ľ×ª×Ĺ": 3837,
      "-×©": 3838,
      "/f": 3839,
      "Ġ×Ķ×Ļ×©×¨×Ĳ×ľ×Ļ×ª": 3840,
      "Ġ:": 3841,
      "Ġ×ĵ×ķ×Ľ×¡": 3842,
      "Ġ×ĳ×Ļ×ķ×Ŀ": 3843,
      "oh": 3844,
      "Ġon": 3845,
      "=×§": 3846,
      "×ĳ×Ļ×ĳ×Ķ": 3847,
      "/d": 3848,
      "Ġ×ł×¨": 3849,
      "×ĺ×Ļ×¡×ĺ": 3850,
      "Ġhttps": 3851,
      "play": 3852,
      "ime": 3853,
      "67": 3854,
      "sk": 3855,
      "><": 3856,
      "-M": 3857,
      "×ķ×¨×Ŀ": 3858,
      "×Ķ×©×Ļ×¨": 3859,
      "×§×Ļ×Ķ": 3860,
      "×ĵ×ĳ×¨": 3861,
      "Ġ×©×Ĺ×¨": 3862,
      "×ķ×ŀ×ł×Ļ×Ķ": 3863,
      ".archive": 3864,
      "ĠSh": 3865,
      "Ġ×©×Ļ×Ĺ×ª": 3866,
      "=I": 3867,
      "Ġ/>ĊĊ": 3868,
      "×ľ×Ĳ×ķ×ŀ×Ļ×ª": 3869,
      "×Ļ×ĳ×ķ": 3870,
      "Ġ×ł×Ļ×¦×Ĺ": 3871,
      "Ġ×©×ķ×ľ": 3872,
      "×ĸ×Ľ": 3873,
      "×ķ×¤×Ĳ": 3874,
      "ics": 3875,
      "×Ļ×¤×ľ×ķ×ŀ×ĺ": 3876,
      "Ġ×¦×Ļ×ĳ×ķ×¨": 3877,
      "Ġ×ĺ×Ļ": 3878,
      "|date": 3879,
      "Ġ×ĳ×ŀ×ª": 3880,
      "Ġ×Ļ×ķ×ł×Ļ": 3881,
      "×Ļ×¤×¨": 3882,
      "×ŀ×¡×¤×¨": 3883,
      "Ġ×ľ×ª×§": 3884,
      "Ġ×ĺ×ľ": 3885,
      "×Ĳ×Ļ×¨": 3886,
      "×Ĳ×ķ×Ł": 3887,
      "Ġ×ĳ×ĵ×¨×ķ×Ŀ": 3888,
      "Ġ×Ķ×Ĳ×¨×Ĵ×ķ×Ł": 3889,
      "Ġ×Ķ×¨×¦": 3890,
      "Ġ×ĳ×ľ×Ļ×Ĵ×ª": 3891,
      "Ġ×ĳ×ł×ķ×©×Ĳ": 3892,
      "Ġ×Ķ×Ķ×¨": 3893,
      "Ġ×§×¨×ľ": 3894,
      "Ġ×§×ķ×Ĳ×ķ×¨×ĵ×Ļ×ł×ĺ×ķ×ª": 3895,
      "Ġ×Ĺ×¦×Ļ": 3896,
      "Ġ×Ķ×ķ×¦×Ĳ×Ķ": 3897,
      "Ġ×Ķ×¢×ĳ×ķ×ĵ×Ķ": 3898,
      "'×Ľ": 3899,
      "Ġ×§×ľ×Ĳ": 3900,
      "×¢×©×Ļ×Ļ×ª": 3901,
      "ĠX": 3902,
      "×Ļ×ª×ķ×ł": 3903,
      "Ġ×ķ×Ķ×¡": 3904,
      "×Ĵ×ľ×Ķ": 3905,
      "Ġ×©×¢×ķ×ª": 3906,
      "Ġ×Ľ×¤×Ļ": 3907,
      "×Ļ×§×¨×Ļ": 3908,
      "×¦×Ļ×ķ×ª": 3909,
      "Ġ×ŀ×Ķ×¢": 3910,
      "Ġ×ŀ×¨×ĵ": 3911,
      "×ķ×©×Ļ": 3912,
      "Ġ×§×ĺ×ł×Ļ×Ŀ": 3913,
      "Ġ×Ķ×Ĺ×ľ×Ļ×ĺ": 3914,
      "Ġ×ľ×Ľ×Ł": 3915,
      "×Ļ×¦×Ļ×Ķ": 3916,
      "Ġ×Ķ×ª×¢×ķ×¤×Ķ": 3917,
      "|×©×ĺ×Ĺ": 3918,
      "Ġ×©×Ĵ": 3919,
      "×ĳ×¨×ĺ": 3920,
      "×Ļ×ĺ×ľ": 3921,
      "Ġ×ª×Ľ": 3922,
      "Ġ×Ķ×Ĺ×ķ×ľ×Ļ×Ŀ": 3923,
      "×ķ×ķ×Ļ×ĸ×Ļ×ķ×Ł": 3924,
      "Ġ×Ķ×Ļ×Ĺ×Ļ×ĵ×Ķ": 3925,
      "×ķ×Ĳ×ĺ": 3926,
      "Ġ×ķ×ŀ×ł": 3927,
      "×Ľ×Ļ×ķ×ķ×Ł": 3928,
      "×Ļ×¡×ķ×ĵ": 3929,
      "Ġ×ķ×ŀ×ĳ": 3930,
      "Ġl": 3931,
      "×¨×Ļ×ĳ": 3932,
      "×¤×§×Ķ": 3933,
      "Ġ×ľ×ĳ×Ł": 3934,
      "Ġ×§×ł×ĵ×Ķ": 3935,
      "Ġ×Ķ×ŀ×§×ķ×Ŀ": 3936,
      "ational": 3937,
      "×ł×ķ×¡": 3938,
      "×Ļ×Ĳ×ª": 3939,
      "Ġ×Ķ×ŀ×Ļ×Ŀ": 3940,
      "=E": 3941,
      "Ġ×ĵ×ķ×¨": 3942,
      "×ŀ×ķ×ĵ×ĵ": 3943,
      "Ġ×Ķ×¦×¢×Ļ×¨": 3944,
      "×¨×Ļ×ķ×Ł": 3945,
      "-×Ĺ": 3946,
      "oun": 3947,
      "×ľ×¢": 3948,
      "Ġ×Ķ×Ĺ×ķ×¥": 3949,
      "×Ļ×ĺ×ķ×ª": 3950,
      "Ġ×Ķ×ŀ×ĳ×ł×Ķ": 3951,
      "×ķ×¤×¢×Ķ": 3952,
      "Ġ×ł×¢×©×Ķ": 3953,
      "orts": 3954,
      "Ġ×©×Ļ×Ĺ×§×Ķ": 3955,
      "×¢×ĵ×Ļ×Ŀ": 3956,
      "Ġ×ķ×Ļ×¦": 3957,
      "Ġ×ľ×ŀ×ĺ": 3958,
      "Ġ×Ļ×¦×Ļ×¨×ķ×ª": 3959,
      "×©×¤": 3960,
      "Ö¸×Ķ": 3961,
      "Ġ×ķ×ŀ×ĵ": 3962,
      "-×ĵ": 3963,
      "=N": 3964,
      "ĠCom": 3965,
      "Ġ×ĳ×ľ×Ļ": 3966,
      "Ġ×Ķ×ŀ×ķ×ĸ×Ļ×§×Ķ": 3967,
      "ina": 3968,
      "×ł×ĺ×Ļ×ł×Ķ": 3969,
      "Ġ×ĵ×Ļ×Ļ×ķ×ķ": 3970,
      "Ar": 3971,
      "ern": 3972,
      "×ķ×ŀ×Ĺ": 3973,
      "Ġ×ŀ×ĳ×ł×Ķ": 3974,
      "×ŀ×¤×Ķ": 3975,
      "=J": 3976,
      "Ġ×Ķ×Ĺ×ķ×§": 3977,
      "Ġ×ł×ķ×¦×¨": 3978,
      "×¨×Ĺ×ĳ": 3979,
      "Ġ×ĳ×ŀ×ł": 3980,
      "×ķ×Ľ×ł×ķ×ª": 3981,
      "Ġ×Ķ×¢×ķ×ĳ": 3982,
      "×ķ×Ľ×ĳ": 3983,
      "cite": 3984,
      "Ġ×Ĵ×ĸ": 3985,
      "×Ļ×¤×Ł": 3986,
      "Ġ×Ķ×ĸ×¨": 3987,
      "Ġ×Ķ×ķ×ľ×ł×ĵ": 3988,
      "×ŀ×ĺ×Ļ×§×Ķ": 3989,
      "×ŀ×Ļ×ķ×ª": 3990,
      "Ġ×©×ł×§": 3991,
      "Ġ×Ļ×Ĺ×¡×Ļ×ª": 3992,
      "×ĺ×ķ×¨": 3993,
      "×¦×ĺ×ĵ×Ļ×ķ×Ł": 3994,
      "×Ļ×ķ×ª×ķ": 3995,
      "×Ļ×ŀ×Ĳ": 3996,
      "×Ļ×Ĳ×ł×Ķ": 3997,
      "ove": 3998,
      "Ġ×Ķ×Ĳ×Ŀ": 3999,
      "str": 4000,
      "ick": 4001,
      "Ġ×ľ×§×¨×Ĳ×ª": 4002,
      "Ġ×Ĳ×ķ×ķ×Ļ×¨": 4003,
      "Ġ×Ĳ×ķ×¡×ĺ×¨×ľ×Ļ×Ķ": 4004,
      "×¤×Ļ×§": 4005,
      "×ŀ×ķ×ª×Ķ": 4006,
      "Ġ×¦×¤×ķ×Ł": 4007,
      "Ġ×©×ŀ×ª": 4008,
      "Ġ×Ĵ×ķ×ľ": 4009,
      "Ġ×ł×Ķ×¨×Ĵ": 4010,
      "Ġ×Ķ×Ľ×ª": 4011,
      "|×ŀ×Ĺ": 4012,
      "Ġ×ŀ×¡×ª": 4013,
      "Ġ×§×ķ×ľ×ł×ķ×¢": 4014,
      "/×Ķ×Ļ×ķ×Ŀ": 4015,
      "ĠMe": 4016,
      "Ġ×ķ×ľ×¢": 4017,
      "ember": 4018,
      "Ġ×ĳ×Ľ×ĵ×ķ×¨×¡×ľ": 4019,
      "ood": 4020,
      "Ġ×Ĺ×ķ×ĸ×Ķ": 4021,
      "Ġ×Ķ×¤×¨×¡": 4022,
      "/web": 4023,
      "Ġ×ŀ×ŀ×ľ×Ľ×ª": 4024,
      "×Ĳ×ľ×Ļ": 4025,
      "Ġ×Ķ×ł×Ķ": 4026,
      "×ķ×ĸ×Ł": 4027,
      "Ġ×ķ×Ķ×Ł": 4028,
      "Ġ×Ķ×ľ×Ļ×Ĵ×Ķ": 4029,
      "=×¦": 4030,
      ":center": 4031,
      "ortable": 4032,
      "Ġ×ľ×¤×ł×Ķ": 4033,
      "ator": 4034,
      "Ġ×§×©×Ķ": 4035,
      "Ġ×Ķ×¤×ª": 4036,
      "Ġ×ĺ×¢": 4037,
      "Ġ×¡×Ļ×Ł": 4038,
      "Ġ×ľ×ŀ×¦×ķ×Ĳ": 4039,
      "Ġ×Ķ×©×ª×ª×¤×Ķ": 4040,
      "Ġ×Ľ×ĵ×ķ×¨": 4041,
      "Ġ×ĳ×ŀ×§×ĳ×Ļ×ľ": 4042,
      "Ġ×ľ×Ķ×Ĵ×Ļ×¢": 4043,
      "Ġ×Ĳ×ľ×Ļ×¤×ķ×ª": 4044,
      "'',": 4045,
      "Ġ×Ķ×ł×¨×Ĳ×Ķ": 4046,
      "Ġ×ŀ×¢×ĳ×¨": 4047,
      "×Ľ×Ļ×ķ×Ŀ": 4048,
      "Ġ×¦×¨": 4049,
      "×ĸ×ķ×¨×Ļ×Ŀ": 4050,
      "×Ĳ×¨×ĵ": 4051,
      "Ġ×Ķ×ł×§": 4052,
      "Ġ×Ĳ×ĳ×Ł": 4053,
      "first": 4054,
      "×Ļ×ŀ×ĳ": 4055,
      "Ġ×¤×ķ×Ł": 4056,
      "×ŀ×ł×ķ": 4057,
      "flow": 4058,
      "×´": 4059,
      "Ġ×§×Ķ": 4060,
      "Ġ×Ķ×Ĵ×ľ": 4061,
      "Ġ×Ķ×ĵ×Ļ×Ł": 4062,
      "=\"#": 4063,
      "ĠYou": 4064,
      "×ĳ×ĵ×Ķ": 4065,
      "×Ļ×Ĵ×Ł": 4066,
      "Ġ×ľ×ŀ×¢×©×Ķ": 4067,
      "-h": 4068,
      "Ġ×ľ×Ļ×ł": 4069,
      "×¤×Ļ×¨": 4070,
      "Ö´Ö¼": 4071,
      "amp": 4072,
      "×ķ×ķ×¨": 4073,
      "sup": 4074,
      "Ġ×ŀ×§×ĳ": 4075,
      "Ġ×§×Ļ×ĳ×ľ×Ķ": 4076,
      "Ġ×Ķ×ĵ×Ļ×ķ×ķ×Ļ×ĸ×Ļ×Ķ": 4077,
      "×ĸ×¨×Ķ": 4078,
      "93": 4079,
      "×Ĵ×ľ×Ļ": 4080,
      "Ġ×Ķ×Ĳ×ĸ×¨×Ĺ": 4081,
      "Ġ×ĳ×¢×ľ×ª": 4082,
      "×¤×ķ×¨×ĵ": 4083,
      "-a": 4084,
      "Ġ×Ĵ×ĵ×ķ×ľ×Ļ×Ŀ": 4085,
      "=H": 4086,
      "×ķ×ķ×Ļ×§": 4087,
      "Ġ×ĵ×Ļ×ł×ŀ×Ļ×ª": 4088,
      "Ġ×Ĵ×ĵ×ľ": 4089,
      "Ġ×¤×¨×Ļ": 4090,
      "Ġ×Ķ×ķ×Ĵ×Ł": 4091,
      "Ġ×¨×ŀ×ª": 4092,
      "ĠUn": 4093,
      "|×ĵ×Ļ×¨×ķ×Ĵ": 4094,
      "ynet": 4095,
      "×Ĺ×©": 4096,
      "Ġ×ķ×ľ×ĳ": 4097,
      "Ġ×Ķ×Ĳ×ķ×ľ×Ļ×ŀ×¤": 4098,
      "×Ľ×ł×ķ×Ł": 4099,
      "Ġ×ª×¨×ĳ×ķ×ª": 4100,
      "-S": 4101,
      "Ġ×ĳ×Ĺ×¨": 4102,
      "ÙĬ": 4103,
      "ann": 4104,
      "ok": 4105,
      "Ġ×Ľ×ľ×ķ×ŀ×¨": 4106,
      "Ġ×Ĳ×Ļ×ĳ": 4107,
      "Ġ×ŀ×¢×ŀ×ĵ": 4108,
      "Ġ×ĳ×©×ĺ×Ĺ": 4109,
      "×ŀ×¤×¨×ĺ": 4110,
      "Ġ×ĸ×Ļ×ľ×ł×ĵ": 4111,
      "Ġ×ŀ×ª×Ļ": 4112,
      "×ľ×Ł": 4113,
      "Ġ×ľ×ķ×Ļ": 4114,
      "Ġ×ĳ×¦×¤×ķ×Ł": 4115,
      "hp": 4116,
      ".pdf": 4117,
      "Ġ×©×¦": 4118,
      "Ġ×¢×ķ×ľ×Ŀ": 4119,
      "Ġ×ĳ×¢×ĳ×¨×Ļ×ª": 4120,
      "'×ŀ×Ĳ": 4121,
      "Ġ×Ķ×¦×Ļ×ĳ×ķ×¨": 4122,
      "Ġ×ľ×Ķ×¡": 4123,
      "Ġ×Ĺ×ĵ×©×Ķ": 4124,
      "Ġ×ª×§×ķ×¤×ª": 4125,
      "Ġ×ŀ×ĳ×¦×¢": 4126,
      "×ĵ×¨×Ļ×Ľ": 4127,
      "Ġ×Ĳ×¨×Ľ": 4128,
      "×ŀ×¤×§×ĵ": 4129,
      "×ķ×¦×Ĳ×ķ×ª": 4130,
      "×Ļ×¦×Ĵ": 4131,
      "Ġ×ĳ×Ĳ×Ļ×¨×ķ×¤×Ķ": 4132,
      "Ġ×ķ×ŀ×¦": 4133,
      "Ġ×Ĳ×ł×Ĵ×ľ×Ļ×Ķ": 4134,
      "ele": 4135,
      "×ŀ×ķ×¢": 4136,
      "Ġ×ŀ×ľ×Ļ×Ĵ×ª": 4137,
      "Ġ×§×Ļ×Ļ×Ŀ": 4138,
      "\"×ĸ": 4139,
      "Ġ×Ķ×ŀ×ķ×¢×¦×Ķ": 4140,
      "Ġ×¤×ķ×ľ×Ļ×Ł": 4141,
      "Ġ×ŀ×ĵ×ľ×Ļ×ķ×ª": 4142,
      "Ġ×Ķ×¢×¨×ļ": 4143,
      "Ġ×©×Ľ×Ł": 4144,
      "×Ĺ×¨×Ļ": 4145,
      "Ġ×ľ×ĵ×¨×Ĵ×ª": 4146,
      "Ġ×Ķ×©×Ļ×¨×Ļ×Ŀ": 4147,
      "Ġ×Ķ×Ļ×¤": 4148,
      "-%": 4149,
      "Ġ×ķ×Ĵ×ĵ": 4150,
      "×¦×Ļ×ĳ": 4151,
      "=×¨": 4152,
      "pr": 4153,
      "×ŀ×Ļ×Ļ×Ķ": 4154,
      "×ĸ×ķ": 4155,
      "Ġ×ŀ×Ķ×©": 4156,
      "Ġ×ŀ×ĵ×Ļ×ł×ª": 4157,
      "-g": 4158,
      "Ġ×ĳ×Ķ×Ĳ": 4159,
      "ical": 4160,
      "Ġ×ľ×Ķ×Ľ": 4161,
      "×Ļ×ĵ×¨": 4162,
      "Ġ×Ĺ×ĸ×¨×Ķ": 4163,
      "Ġ×ľ×©×Ļ×¨": 4164,
      "×ŀ×©×ª×ŀ×©": 4165,
      ".}}": 4166,
      "Ġ×¨×Ļ×©": 4167,
      "×ľ×ŀ×ł×ĺ": 4168,
      "Ġ×Ĳ×ł×ĵ": 4169,
      "Ġ×©×ł×ª×Ļ×Ļ×Ŀ": 4170,
      "Ġ×Ķ×¢×ª×Ļ×§×Ķ": 4171,
      "Ġ×Ķ×Ĵ×Ļ×¢×ķ": 4172,
      "Ġ×©×ľ×ķ×Ŀ": 4173,
      "Ġ×¢×¦×ŀ×Ķ": 4174,
      "×ķ×¤×ķ×ľ×¨": 4175,
      "Ġ×ĳ×Ĵ×ĳ×Ļ×¢": 4176,
      "Ġ×ĳ×ŀ×ĺ×¨×Ķ": 4177,
      "Ġ×¤×Ĺ×ķ×ª": 4178,
      "×ķ×ŀ×¤": 4179,
      "=ĊĊĊ": 4180,
      "ublisher": 4181,
      "Ġ×ľ×ŀ×Ľ": 4182,
      "Ġ×Ķ×¢×Ļ×§×¨": 4183,
      "×ĳ×¢×ķ×ª": 4184,
      "ĠZ": 4185,
      "bo": 4186,
      "×Ļ×ł×ª×ķ×ł×Ļ×Ŀ": 4187,
      "×Ĳ×ª×¨": 4188,
      "Ġ_": 4189,
      "Ġ×¨×ķ×ĳ×¨×ĺ": 4190,
      "Ġ×¢×ķ×ľ×ŀ×Ļ×ª": 4191,
      "Ġ×©×Ľ×ľ": 4192,
      "Ġ×ŀ×¢×¨×Ľ×ķ×ª": 4193,
      "Ġ×Ĺ×Ļ×Ļ×ķ": 4194,
      "Ġ×Ļ×Ķ×ķ×ĵ×Ļ×ª": 4195,
      "Ġ×ľ×¢×¦": 4196,
      "=The": 4197,
      "×ĳ×©×ł×Ļ×Ŀ": 4198,
      "Ġ×ĳ×¨×Ļ×ĺ×ł×Ļ×Ķ": 4199,
      "Ġ×ŀ×Ĺ×ķ×¥": 4200,
      "Ġ×ľ×Ĳ×Ĺ×ĵ": 4201,
      "×Ļ×¡×ĺ×Ļ×Ŀ": 4202,
      "Ġ×ª×ķ×©×ĳ×Ļ×Ŀ": 4203,
      "-st": 4204,
      "×Ļ×¡×ķ×Ł": 4205,
      "Ġ×ĳ×ŀ×©×Ĺ×Ķ": 4206,
      "Ġ×Ķ×¡×Ľ": 4207,
      "\"×ļ": 4208,
      "ery": 4209,
      "×ŀ×§×¡": 4210,
      "Ġ×Ĵ×ĳ×ķ×Ķ×Ķ": 4211,
      "Ġ×Ļ×Ķ×Ļ×Ķ": 4212,
      "-A": 4213,
      "×Ķ×Ł": 4214,
      "Ġ×ĳ×Ļ×ľ": 4215,
      "Ġ×ŀ×ķ×§": 4216,
      "×ľ×£": 4217,
      "×¡×Ļ×Ķ": 4218,
      "Ġ×§×Ļ×¨": 4219,
      "Ġ×¡×¨": 4220,
      "×ķ×ŀ×Ļ×Ķ": 4221,
      "64": 4222,
      "add": 4223,
      "Ġ×Ķ×¦×ĳ×Ĳ×Ļ": 4224,
      "|×ŀ×¤×ķ×¨×ĺ": 4225,
      "Ġ×ľ×Ķ×¦×ľ×Ĺ×Ķ": 4226,
      "ĠAn": 4227,
      "×Ķ×Ĳ×¨×¥": 4228,
      "×ľ×ŀ×Ļ×ĵ": 4229,
      "res": 4230,
      "×Ļ×§×ķ×Ł": 4231,
      "×Ļ×¤×ª": 4232,
      "Ġ×ľ×¡×¤×¨": 4233,
      "Ġ×¤×ķ×¢": 4234,
      "×Ļ×Ľ×Ĳ×ľ": 4235,
      "Ġ×Ķ×¦×¨×¤×ª×Ļ×ª": 4236,
      "app": 4237,
      "Ġ×ľ×Ĳ×ŀ×ł×ķ×ª": 4238,
      "179": 4239,
      "Ġ×ľ×Ķ×¨": 4240,
      "×¨×Ĵ×Ļ×Ķ": 4241,
      "|last": 4242,
      "Ġ×ķ×ł×§": 4243,
      "Ġ×Ļ×ĳ": 4244,
      "×Ļ×¤×ķ×¨×Ļ×Ŀ": 4245,
      "Ġ×ĳ×ª×ķ": 4246,
      "Ġ×ĳ×ª×ķ×Ľ×ł×Ļ×ª": 4247,
      "Ġ×ľ×Ĺ×§": 4248,
      "×Ķ×¡×¨×ĺ": 4249,
      "-B": 4250,
      "×Ĳ×ł×ķ": 4251,
      "Ġ×ŀ×©×ľ": 4252,
      "Ġ×Ķ×¡×ķ×ĳ×Ļ": 4253,
      "×ķ×ł×ľ": 4254,
      "×Ļ×Ľ×¨×ķ×Ł": 4255,
      "×Ļ×©×ª": 4256,
      "|×ŀ×Ĳ": 4257,
      "Ġ×Ľ×Ļ×ķ×ķ×Ł": 4258,
      "Ġ×ª×§×ľ×Ļ×ĺ×Ļ×Ŀ": 4259,
      "Ġ×¡×Ļ×¨": 4260,
      "×ŀ×ķ×ª×ķ": 4261,
      "×ķ×ŀ×ķ×ł": 4262,
      "Ġ×¨×Ĵ×ľ": 4263,
      "Ġ×ķ×ĳ×ķ": 4264,
      "Ġ×Ĵ×ľ×ķ×Ļ": 4265,
      "*}}": 4266,
      "Ġ×ł×Ĳ×ľ": 4267,
      "loc": 4268,
      "×ķ×ķ×Ļ×ľ": 4269,
      "Ġ×¢×ĸ×ĳ": 4270,
      "Ġ×Ķ×ĳ×ľ": 4271,
      "×¦×¨×ķ×ª": 4272,
      "%Ċ": 4273,
      "Ġ×Ķ×Ļ×ľ×ĵ×Ļ×Ŀ": 4274,
      "Ġ×ĳ×¦×¨×¤×ª": 4275,
      "Ch": 4276,
      "|{{{": 4277,
      "-\"": 4278,
      "Ġ×©×ľ×Ĳ×Ĺ×¨": 4279,
      "Ġ×ĸ×Ľ×ķ×Ļ×ķ×ª": 4280,
      "×Ĳ×©": 4281,
      "Ġ{{*}}": 4282,
      "-I": 4283,
      "ci": 4284,
      "×ł×Ĳ×ĺ": 4285,
      "Ġ×Ķ×©×Ĺ×§×Ł": 4286,
      "×Ļ×¡×ĵ": 4287,
      "×ķ×ľ×Ļ×ª": 4288,
      "Ġ×ķ×Ķ×¨": 4289,
      "big": 4290,
      "Ġ×ĳ×©×ł×Ķ": 4291,
      "cope": 4292,
      "×Ļ×ł×¨": 4293,
      "\"×§": 4294,
      "Ġ×Ĳ×Ĺ×¨×ª": 4295,
      "log": 4296,
      "|<": 4297,
      "×Ķ×¢×¨×ķ×ª": 4298,
      "Ġ×Ķ×ĳ×Ĺ×Ļ×¨×ķ×ª": 4299,
      "Ġ×Ĵ×Ł": 4300,
      "Ġ×ĳ×ľ×ķ×ł×ĵ×ķ×Ł": 4301,
      "Ð²": 4302,
      "hite": 4303,
      "Ġ×ŀ×ĳ×Ļ×Ł": 4304,
      "Ġ×ŀ×ķ×ĺ": 4305,
      "Ġ×ľ×Ķ×Ĵ": 4306,
      "ange": 4307,
      "Ġ×ľ×¨×ĳ": 4308,
      "Ġ×ķ×ŀ×Ĵ": 4309,
      "×ķ×ĸ×Ļ×Ŀ": 4310,
      "Ġ×Ķ×Ĳ×ŀ×¨×Ļ×§×Ĳ×Ļ": 4311,
      ":{{{": 4312,
      "Ġ×¡×ĵ×¨×Ķ": 4313,
      "×Ļ×ł×Ĵ×¨": 4314,
      "Ġ×Ĺ×ĵ×©×Ļ×Ŀ": 4315,
      "Ġ×ĺ×§×¡": 4316,
      "Ġ×Ķ×ĳ×¨×Ļ×ĺ×Ļ×ª": 4317,
      "Ġ×ľ×§×ĳ×ľ": 4318,
      "Ġ×ŀ×¨×ĺ": 4319,
      "Ġ×ŀ×©×ķ×Ŀ": 4320,
      "Ġ×ľ×Ļ×ŀ×ķ×ĵ×Ļ": 4321,
      "87": 4322,
      "Ġ×ŀ×ķ×Ľ": 4323,
      "Ġ×ĳ×ŀ×ĵ×Ļ": 4324,
      "ve": 4325,
      "×¤×Ļ×ª": 4326,
      "×ŀ×ł×ķ×Ļ×ķ×ª": 4327,
      "×ĳ×ĳ": 4328,
      "Ġ×Ķ×ķ×¦×Ļ×Ĳ": 4329,
      ".php": 4330,
      "Ġ×Ķ×¦×¢": 4331,
      "Ġ×Ķ×¨×Ľ×ĳ×ª": 4332,
      "Ġ×Ķ×ķ×¤×Ļ×¢×Ķ": 4333,
      "Ġ×ŀ×ķ×ĳ": 4334,
      "|×Ķ×ķ×¤×¢×ķ×ª": 4335,
      "Ġ×ķ×Ķ×§": 4336,
      "Ġ×Ķ×§×ķ×ľ×ł×ķ×¢": 4337,
      "Ġ×ŀ×©×ł×Ķ": 4338,
      "Ġ×ŀ×¤×¢": 4339,
      "Ġ×ķ×ĳ×Ľ×ļ": 4340,
      "inline": 4341,
      "×Ķ×¤": 4342,
      "Ġ×ĳ×¢×ľ×ķ×ª": 4343,
      "ere": 4344,
      "||+}}": 4345,
      "×ł×ľ": 4346,
      "Ġ×ĳ×¤×ł×Ļ": 4347,
      "Ġ×¨×©×ŀ×Ļ": 4348,
      "Ġ×ķ×Ļ×©": 4349,
      "Ġ|Ċ": 4350,
      "×Ļ×Ļ×ª×ķ": 4351,
      "Ġ×ľ×Ķ×©×ª×ŀ×©": 4352,
      "Ġ×ľ×¢×ķ×ŀ×ª": 4353,
      "Ġ×ľ×¨×Ĳ×ķ×ª": 4354,
      "×¤×§×ª": 4355,
      "Ġ×Ķ×©×Ľ": 4356,
      "Ġ×¢×¨×ĳ": 4357,
      "Ġ×¨×ķ×Ĺ×ĳ": 4358,
      "Ġ×ĳ×¤×¨×Ļ×ĸ": 4359,
      "×§×ĵ×Ŀ": 4360,
      "frac": 4361,
      "Ġ×Ķ×¡×Ľ×Ŀ": 4362,
      "×Ķ×¦": 4363,
      "Ġ×ľ×Ļ×¦×ķ×¨": 4364,
      "Ġ×Ķ×¨×©×ŀ×Ļ": 4365,
      "'×ł": 4366,
      "×¢×©×Ļ×Ļ×Ķ": 4367,
      "Ġ×Ĳ×ķ×Ķ": 4368,
      "×©×¨×Ļ": 4369,
      ".f": 4370,
      "×Ļ×©×ľ": 4371,
      "Ġ×ŀ×Ĺ×ĸ": 4372,
      "Ġ{},Ċ": 4373,
      "-×¨": 4374,
      "Ġ×ĳ×Ķ×§": 4375,
      "Ġ×ĵ×ķ×ł": 4376,
      "Ġ×Ķ×ĳ×§×Ļ×¢": 4377,
      "ix": 4378,
      "×ķ×ª×Ŀ": 4379,
      "×ķ×¦×Ļ": 4380,
      "×ŀ×¨×Ļ": 4381,
      "âĢĵĊ": 4382,
      "×Ļ×ŀ×Ļ×ł×Ķ": 4383,
      "Ġ×©×ĳ×Ĳ": 4384,
      "ilm": 4385,
      "Ġ×Ķ×ĸ×Ķ×ĳ": 4386,
      "×¤×Ļ×ľ×Ķ": 4387,
      "}}}}{{": 4388,
      "×ľ×ĺ×ª": 4389,
      "Ġ×ĳ×ŀ×ķ×¢×ĵ×ķ×Ł": 4390,
      "Ġ×Ĺ×ŀ×©": 4391,
      "×ŀ×©×Ļ×ļ": 4392,
      "Ġ×Ķ×ŀ×¨×Ľ×ĸ×Ļ": 4393,
      "Ġ×Ķ×Ĺ×Ļ×ł×ķ×ļ": 4394,
      "Ġ×¨×©×ŀ×Ļ×ª": 4395,
      "×Ļ×ŀ×ķ×ĵ×Ļ×Ŀ": 4396,
      "×Ķ×Ļ×Ķ": 4397,
      "Ġ×Ķ×¤×ĵ×¨": 4398,
      "Ġ×¦×ĳ×Ļ": 4399,
      "ons": 4400,
      "----": 4401,
      "Ġ×ĳ×Ĵ×¨×ŀ×ł×Ļ×Ķ": 4402,
      "Ġ×Ĺ×Ĵ": 4403,
      "Ġ×ł×¤×Ĵ": 4404,
      "×Ļ×¢×Ļ×ª": 4405,
      "Ġ×Ľ×ł×Ĵ×ĵ": 4406,
      "'×Ĳ×Ł": 4407,
      "×Ļ×Ĵ×ķ×¨": 4408,
      "×ķ×Ļ×Ķ": 4409,
      "Ġ×ĵ×Ļ×¨×ķ×Ĵ": 4410,
      "×ķ×ľ×ŀ×Ļ": 4411,
      "Ġ-Ċ": 4412,
      "×Ļ×¡×ĺ×ķ×¨×Ļ": 4413,
      "Ġ×Ķ×ĳ×Ļ×ł×ľ×Ĳ×ķ×ŀ×Ļ": 4414,
      "Ġ×ĳ×¨×§": 4415,
      "Ġ×Ļ×¦×¨": 4416,
      "ĠØ": 4417,
      "ata": 4418,
      "Ġ×Ĳ×Ļ×ł×Ŀ": 4419,
      "001": 4420,
      "are": 4421,
      "Ġ×ĳ×§×ĺ": 4422,
      "Ġ×¡×Ļ×¤×ķ×¨": 4423,
      "Ġ×¦×¢×Ļ×¨": 4424,
      "×Ĳ×¤": 4425,
      "Ġ×ª×Ĺ×ł×ª": 4426,
      "Ġ×©×ŀ×ķ×Ĳ×ľ": 4427,
      "/en": 4428,
      "Ġ×ľ×ķ×ł×ĵ×ķ×Ł": 4429,
      "=×ł": 4430,
      "Ġ×Ķ×¨×Ļ": 4431,
      "Ġ×ŀ×ª×Ĳ×¨": 4432,
      "lack": 4433,
      "×¨×Ĳ×¤×ĺ": 4434,
      "Ġ×Ķ×Ľ×ĵ×ķ×¨×Ĵ×ľ": 4435,
      "Ġ×ķ×ĳ×¡": 4436,
      "ase": 4437,
      "Ġ×Ļ×Ĺ×Ļ×ĵ×ķ×ª": 4438,
      "Ñĥ": 4439,
      "Ġ×ľ×Ĳ×ľ": 4440,
      "Ġ×Ķ×Ĵ×¨×ŀ×ł×Ļ": 4441,
      "!width": 4442,
      "Ġ×Ĳ×ķ×Ĵ×ķ×¡×ĺ": 4443,
      "Ġ×ķ×Ļ×ľ×Ļ×Ĳ×Ŀ": 4444,
      "uro": 4445,
      "×ķ×¨×§×Ļ×Ķ": 4446,
      "Ġ×Ķ×¢×¦×ŀ×Ĳ×ķ×ª": 4447,
      "×ł×ĳ×¨×Ĵ": 4448,
      "×Ļ×ĳ×ķ×ĵ": 4449,
      "Ġ×¢×©×¨×Ķ": 4450,
      "display": 4451,
      "Ġ×ĺ×Ľ×ł": 4452,
      "Ġ×ľ×¡×¨×ĺ": 4453,
      "BC": 4454,
      "Ġ×ł×©×ľ×Ĺ": 4455,
      "Ġ×ĳ×©×Ľ": 4456,
      "_{": 4457,
      "×Ľ×ŀ×ķ": 4458,
      "Ġ×©×ŀ×ķ×ł×Ķ": 4459,
      "Ġ×Ĳ×¦": 4460,
      "Ġ×ľ×Ĳ×ł": 4461,
      "Ġ×Ķ×§×¨×ĳ": 4462,
      "Ġ×ŀ×¦×ĳ": 4463,
      "92": 4464,
      "×Ļ×Ĺ×Ļ×Ŀ": 4465,
      "nal": 4466,
      "Ġ×ĳ×¢×¨×ķ×¥": 4467,
      "|×©×ł×ª": 4468,
      "×ł×ĺ×Ĳ×¨×§×ĺ": 4469,
      "|×¨×§×¢": 4470,
      "Ġ×©×ĳ×ª": 4471,
      "=×©×ŀ×Ĳ×ľ": 4472,
      "Ġ×Ķ×¦×ĺ×¨": 4473,
      "Ġ×¨×§×¢": 4474,
      "lin": 4475,
      "Ġ×ŀ×Ļ×ĵ": 4476,
      "Ġ×ĳ×Ķ×ª×Ĳ×Ŀ": 4477,
      "Ġ×§×ĳ×ķ×¢": 4478,
      "×Ļ×¡×ª": 4479,
      "Ġ×ĳ×Ĳ×ª": 4480,
      "Ö²": 4481,
      "Ġ×¢×©×ķ": 4482,
      "×ķ×¦×Ļ×Ĳ×ľ": 4483,
      "Ġ×Ķ×Ĵ×Ļ×¢×Ķ": 4484,
      "Ġ×Ķ×ª×©": 4485,
      "×ķ×ª×Ļ×ķ": 4486,
      "Ġ×ł×Ķ×¨": 4487,
      "86": 4488,
      "Ġ×ŀ×¡×ļ": 4489,
      "|×Ķ×Ľ×ķ×ª×ĳ": 4490,
      "×ĵ×¨×ļ": 4491,
      "Ġ×©×Ķ×¢": 4492,
      ":S": 4493,
      "×¤×¨×¡×Ŀ": 4494,
      "Ġ×Ķ×§×©": 4495,
      "×Ķ×©×Ĳ×ľ×Ķ": 4496,
      "×Ļ×¦×ķ×¢": 4497,
      "ĠSp": 4498,
      "Ġ×§×Ļ×ľ×ķ×ŀ×ĺ×¨×Ļ×Ŀ": 4499,
      "×¡×ķ": 4500,
      "}}|": 4501,
      "Ġ×¤×§": 4502,
      "Ġ×ĳ×¦×ĳ×¢": 4503,
      "Ġ×Ļ×ŀ×Ļ": 4504,
      "×Ļ×Ĳ×ĺ": 4505,
      "|×Ĳ×ĵ×¨": 4506,
      "Ġ×Ķ×ĵ×ŀ×ķ×§×¨×ĺ": 4507,
      "-×ľ": 4508,
      "Ġ×Ķ×¢×ķ×ª": 4509,
      "Ġ×¤×¨×ł×¡": 4510,
      "Ġ×ĳ×Ľ×ª": 4511,
      "ody": 4512,
      "-||": 4513,
      "Ġ×©×ĳ×¨": 4514,
      "Ġ×Ķ×Ķ×Ĵ×ł×Ķ": 4515,
      "×Ĵ×¨×¡×Ķ": 4516,
      "×ŀ×ķ×ĸ": 4517,
      "×¡×£": 4518,
      "×ł×Ķ×¨": 4519,
      "Ġ×ĳ×ķ×ĺ": 4520,
      "Ġ×Ķ×ŀ×ķ×ł": 4521,
      "Ġ×ł×©×ķ×Ļ": 4522,
      "/Ċ": 4523,
      "Ö´×Ļ": 4524,
      "×ķ×ĵ×ł×ĺ×Ļ×Ŀ": 4525,
      "Ġ×ŀ×ķ×¡×§×ĳ×Ķ": 4526,
      "uage": 4527,
      "Ġ×ľ×Ĵ×¨": 4528,
      "|×¡×ŀ×ľ": 4529,
      "Ġ×ł×ŀ×¦×Ĳ×ª": 4530,
      "Ġ×Ķ×ĳ×Ļ×ĺ×Ĺ×ķ×Ł": 4531,
      "Ġ×Ķ×¨×Ĳ×©×ķ×ł×ķ×ª": 4532,
      "ace": 4533,
      "Ġ×Ķ×ĵ×¨×ķ×ŀ×Ļ×ª": 4534,
      "Ġ×ĵ×Ļ×Ĵ": 4535,
      "×¨×Ĵ×ķ×Ŀ": 4536,
      "Ġ×Ķ×ŀ×§×ķ×¨×Ļ": 4537,
      "cr": 4538,
      "Ġ×Ķ×©×Ļ×ŀ×ķ×©": 4539,
      "Ġ×§×¨×Ł": 4540,
      "Ġ×ª×Ĺ×¨×ķ×ª": 4541,
      "Ġ×ĳ×¨×©": 4542,
      "Ġ×Ķ×Ľ×ľ×ľ×Ļ": 4543,
      "Ġ×ŀ×¨×ĳ×Ļ×ª": 4544,
      "ome": 4545,
      "Ġ×ľ×¦×ķ×¨×ļ": 4546,
      "Ġ×¡×Ļ×ĺ×Ļ": 4547,
      "Ġ×Ĳ×Ķ×¨": 4548,
      "Ġ×ĳ×ŀ×ĵ×Ļ×ł×Ķ": 4549,
      "×ķ×ŀ×Ľ": 4550,
      "×ĵ×ķ×¨×Ķ": 4551,
      "Ġ×Ķ×¦×ĵ": 4552,
      "Ġ×Ķ×©×Ĳ×¨": 4553,
      "Ġ×¡×Ł": 4554,
      "Ġ×Ķ×ł×ķ×Ľ": 4555,
      "×¨×Ĺ×ķ×Ł": 4556,
      "Ġ×Ĵ×ķ×ľ×ĵ": 4557,
      "×ķ×ł×ĵ×Ļ×Ĳ×ľ": 4558,
      "Ġ×ł×Ľ×ķ×Ł": 4559,
      "|×Ĳ×ĸ×ķ×¨": 4560,
      "||+}}ĊĊ": 4561,
      "Ġ×ĵ×¨×Ĵ": 4562,
      "view": 4563,
      "Ġ×ķ×Ľ×ļ": 4564,
      "×Ļ×ł×Ŀ": 4565,
      "Ġ×©×ĵ×Ķ": 4566,
      "×ĳ×ª×Ĺ": 4567,
      "Ġ×Ĳ×ķ×ł": 4568,
      "Ġ×Ķ×Ĳ×ĵ×ķ×Ŀ": 4569,
      "×¨×ķ×ĳ": 4570,
      "Ġ×Ľ×§": 4571,
      "_b": 4572,
      "Ġ×Ļ×Ľ×ķ×ľ×Ļ×Ŀ": 4573,
      "×ŀ×¦×Ĳ": 4574,
      "Ġ×Ķ×ĺ×ĳ×¢": 4575,
      "×Ļ×ĺ×Ĳ": 4576,
      "Ġ×©×Ĺ×§×Ł": 4577,
      "Ġ×Ļ×Ķ×ĵ×ķ×ª": 4578,
      "Ġ×Ķ×ķ×¢×ľ×Ķ": 4579,
      "Ġ×Ļ×ª": 4580,
      "Ġ×§×ŀ": 4581,
      "×ł×ª×ķ×ł×Ļ": 4582,
      "Ġ×¨×ĵ": 4583,
      "Ġ×¡×¤×¨×ķ×ª": 4584,
      "ect": 4585,
      "×ĸ×ŀ×¨": 4586,
      "Ġ×Ķ×ŀ×ķ×¨": 4587,
      "Ġ×ŀ×Ĳ×¨": 4588,
      "Ø±": 4589,
      "Ġ×Ĳ×ķ×¡×ĺ×¨×Ļ×Ķ": 4590,
      "×¤×Ľ×Ķ": 4591,
      "-C": 4592,
      "×Ļ×¡×ĺ×Ļ": 4593,
      "Ġ×ĳ×ŀ×ķ×¡": 4594,
      "=×Ļ×ŀ×Ļ×ł×Ķ": 4595,
      "×ķ×ĳ×¡×§×Ļ": 4596,
      "×Ĵ×¨×Ļ×Ķ": 4597,
      "'×¨×ĵ": 4598,
      "ton": 4599,
      "×ķ×¦×¨×ª": 4600,
      "Ġ×ª×ķ×¨×Ķ": 4601,
      "Ġ×Ķ×ª×Ĵ": 4602,
      "×ł×¢": 4603,
      "Ġ×ľ×Ļ×¨": 4604,
      "Ġ×§×Ļ×¡×¨": 4605,
      "×©×¨×Ķ": 4606,
      "Ġ×¨×ķ×Ĺ": 4607,
      "Ġ×Ķ×ŀ×©×ł×Ķ": 4608,
      "Ġ×§×ľ×Ļ": 4609,
      "×¤×ª×Ĺ×ķ×ª": 4610,
      "Ġ×Ľ×ķ×ª×ĳ": 4611,
      "Ġ×ª×Ĺ×Ļ×ľ×ª": 4612,
      "Ġ×ŀ×¡×ľ×ķ×ľ": 4613,
      "×Ļ×ľ×Ļ×Ķ": 4614,
      "Ġ×Ķ×ŀ×ķ×©": 4615,
      "=|Ċ": 4616,
      "Ġ×Ķ×ª×ł×ķ×¢×Ķ": 4617,
      "Ġ×¡×§×ķ×ĺ": 4618,
      "Ġ×Ĺ×ł": 4619,
      "Ġ×Ĳ×Ļ×¡": 4620,
      "ma": 4621,
      "Ġ×©×ŀ×ķ×ª": 4622,
      "Ġ×§×ĳ×¢": 4623,
      "×ķ×ª×Ĺ": 4624,
      "Ġ×Ĳ×ľ×§×ĺ×¨": 4625,
      "-re": 4626,
      "×©×Ĳ": 4627,
      "Ġ×Ķ×¢×ŀ×ŀ": 4628,
      "×Ļ×Ļ×ĳ": 4629,
      "PD": 4630,
      "×Ĺ×ľ×§": 4631,
      "Ġ×ķ×Ĳ×Ļ×ľ×ķ": 4632,
      "Ġ×ĳ×Ĳ×ł×Ĵ×ľ×Ļ×ª": 4633,
      "×¡×§×ķ": 4634,
      "×ķ×¨×ķ×ķ×Ĵ×Ļ×Ķ": 4635,
      ")\",": 4636,
      "Ġ×ľ×Ķ×§×ª": 4637,
      "×ľ×Ĳ×ķ×ª": 4638,
      "}Ċ": 4639,
      "|×©×ĳ×ĺ": 4640,
      "Ġ×Ķ×ª×¤×§×Ļ×ĵ": 4641,
      "Ġ×¢×¥": 4642,
      "af": 4643,
      "Ġ×ĳ×ĺ×¨": 4644,
      "Ġ×¤×Ĳ×¨": 4645,
      "}{": 4646,
      "Ġ×¦×ŀ×Ĺ": 4647,
      "ĠPro": 4648,
      "×©×ľ×ķ×Ŀ": 4649,
      "×ķ×ŀ×ĳ×Ļ×Ķ": 4650,
      "-D": 4651,
      "×¦×ĵ": 4652,
      "/in": 4653,
      "×¤×ļ": 4654,
      "Ġ×¦×Ļ×ľ": 4655,
      "×Ļ×ĳ×ķ×¨×Ļ": 4656,
      "Ġ×ľ×ķ×§": 4657,
      "|accessdate": 4658,
      "Ġ×Ķ×Ĺ×ŀ×Ļ×©×Ļ": 4659,
      "Ġ×§×ĺ×Ĵ×ķ×¨×Ļ×Ķ": 4660,
      "Ö·Ö¼": 4661,
      "Ġ×Ķ×Ĳ×ª×¨": 4662,
      "Ġ×ŀ×Ķ×ķ×ķ×Ķ": 4663,
      "Ġ×Ķ×¢×Ŀ": 4664,
      "Ġ×¢×¨×Ľ×Ļ×Ŀ": 4665,
      "×ķ×©×ľ×ª": 4666,
      "×ŀ×¨×ķ×ª": 4667,
      "×Ļ×ľ×ķ×ĳ": 4668,
      "×Ĳ×Ĺ×ĵ": 4669,
      "Ġ×Ķ×ŀ×¢×¨×ĳ×Ļ×ª": 4670,
      "Ġ×ľ×ŀ×§": 4671,
      "×¡×ĺ×ķ×Ł": 4672,
      "Ġ×ĳ×¤×¨×§": 4673,
      "Ġat": 4674,
      "Ġ×ŀ×Ļ×ķ×Ĺ": 4675,
      "Ġ×§×ľ×Ļ×¤×ķ×¨×ł×Ļ×Ķ": 4676,
      "ournal": 4677,
      "Ġ×Ķ×Ļ×ŀ×Ļ×Ŀ": 4678,
      "×ķ×Ĵ×¨×ª": 4679,
      "×Ļ×ŀ×Ļ×ª": 4680,
      "Ġ×ľ×ł×©×Ļ×Ĳ": 4681,
      "per": 4682,
      "×Ļ×ŀ×¦": 4683,
      "Ġ×ĳ×¢×ķ×ł×Ķ": 4684,
      "Ġ×ľ×ĳ×¡×ķ×£": 4685,
      "Ġ×ķ×ŀ×¨": 4686,
      "Ġ×Ķ×Ĳ×ŀ×ł×ķ×ª": 4687,
      "Ġ×Ķ×©×ľ×ĺ×ķ×Ł": 4688,
      "Ġ×Ķ×¦×¤×ķ×ł×Ļ×ª": 4689,
      "Ġ×Ĳ×Ļ×©×Ļ": 4690,
      "Ġ×Ķ×¡×ĺ": 4691,
      "×ķ×©×Ļ×ł×Ĵ×ĺ×ķ×Ł": 4692,
      "ans": 4693,
      "Ġscope": 4694,
      "Ġ×Ķ×Ĳ×ķ×ł×Ļ×ĳ×¨×¡×Ļ×ĺ×Ķ": 4695,
      "Ġ×ŀ×Ļ×Ł": 4696,
      "Ġ×Ĺ×©×ķ×ĳ": 4697,
      "Ġ×¦×Ļ×ķ×Ł": 4698,
      "Ġ×ĳ×ł×§": 4699,
      "Ùħ": 4700,
      "Ġ×ĳ×ŀ×§×ķ×¨": 4701,
      "Ġ×Ļ×¤×Ł": 4702,
      "Ġ×¦×Ĳ×¦": 4703,
      "×Ķ×ĵ": 4704,
      "×ķ×ľ×Ļ×Ķ": 4705,
      "Ġ×ĺ×§×¡×ĺ": 4706,
      "Ġ×Ķ×ĸ×ķ×Ĵ": 4707,
      "Ġ×§×¨×ķ×ĳ×ķ×ª": 4708,
      "=×¢×ĺ×Ļ×¤×ª": 4709,
      "×¡×Ł": 4710,
      "Ġ×Ķ×ł×¤": 4711,
      ":A": 4712,
      "×ĳ×Ļ×©": 4713,
      "×ķ×ŀ×§": 4714,
      "×Ļ×Ĵ×ķ×ª": 4715,
      "|E": 4716,
      "-×Ĵ": 4717,
      "×ķ×ĵ×Ļ×ķ": 4718,
      "×ķ×¦×Ļ×Ĳ": 4719,
      "×©×ł×Ķ": 4720,
      "Ġ×©×¢×ľ": 4721,
      "Ġ×Ķ×Ĳ×Ļ×ł": 4722,
      "×Ĵ×ľ×ķ": 4723,
      "rit": 4724,
      "Ġ×ŀ×Ļ×ł×Ļ": 4725,
      "Ġ×©×Ļ×ª": 4726,
      "Ġ×¨×Ļ×¦": 4727,
      "atch": 4728,
      "Ġ×Ķ×¢×Ļ×Ļ×¨×Ķ": 4729,
      "×ķ×ŀ×Ĳ×¡": 4730,
      "|×¡×Ļ×ķ×ķ×Ĵ": 4731,
      "×¦×Ļ×Ļ×ª": 4732,
      "×§×ľ×Ļ×ĺ": 4733,
      "×ł×Ļ×Ļ×ª": 4734,
      "=W": 4735,
      "Ġ×ĳ×Ļ×§×ķ×¨×ª": 4736,
      "Ġ×Ĵ×ŀ×¨": 4737,
      "|×Ľ×Ļ×ł×ķ×Ļ": 4738,
      "Ġ×ķ×ŀ×¤": 4739,
      "Ġ×Ķ×ŀ×ķ×ĵ×¨": 4740,
      "×Ļ×Ĳ×¡": 4741,
      "Ġ×Ķ×Ļ×Ĺ×Ļ×ĵ": 4742,
      "ĊĊĊĊĊ": 4743,
      "|S": 4744,
      "×Ļ×¨×ķ×©": 4745,
      "oly": 4746,
      "Ġ×ł×ķ×¨": 4747,
      "Ġ×ł×ĳ×ł×Ķ": 4748,
      "Ġ×Ķ×Ĵ×ĵ×ķ×ľ×Ļ×Ŀ": 4749,
      "×ķ×§×ĺ×ķ×¨": 4750,
      "Ġ×Ĳ×Ļ×Ļ×¨": 4751,
      "×§×©": 4752,
      "Ġ×Ķ×ł×ĳ×Ĺ×¨": 4753,
      "Ġ×ľ×Ļ×¦": 4754,
      "Ġ×Ķ×ł×Ĳ×¦×Ļ×ª": 4755,
      "Ġ×ķ×Ľ×ľ": 4756,
      "Ġ×¢×ľ×Ļ×Ķ": 4757,
      "Ġ×Ĺ×ķ×ĵ×©": 4758,
      "Ġ×ĳ×ĳ×Ĺ×Ļ×¨×ķ×ª": 4759,
      "×ľ×ĺ×Ļ×§×Ķ": 4760,
      "178": 4761,
      "language": 4762,
      "Ġ×Ķ×Ĳ×ĳ": 4763,
      "Ġ×ł×©×Ĳ×¨": 4764,
      "×ĳ×Ĳ×ľ×Ļ×¤×ķ×ª": 4765,
      "Ġ×¦×ĳ×Ĳ×Ļ": 4766,
      "gle": 4767,
      "imes": 4768,
      "Ġsortable": 4769,
      "Ġ×ŀ×Ļ×¨": 4770,
      "×ķ×Ķ×¨": 4771,
      "|\"": 4772,
      "Ġ×§×¨×Ĳ": 4773,
      "×ŀ×©×§": 4774,
      "Ġ×ĳ×¢×Ļ×Ļ×¨×Ķ": 4775,
      "Ġ×ķ×ĳ×Ļ×Ł": 4776,
      "Ġ×ľ×Ļ×Ĵ×ª": 4777,
      "Ġ×ķ×©×Ŀ": 4778,
      "Ġ×ª×ł×ķ×¢×ª": 4779,
      "na": 4780,
      "Ġ×ĵ×ķ×ĳ": 4781,
      "×ĸ×ŀ×Ł": 4782,
      "×ľ×ª×Ķ": 4783,
      "\"×Ľ": 4784,
      "ĠQ": 4785,
      "Ġ×ĳ×ĳ×¢": 4786,
      "85": 4787,
      "×ł×§×ķ": 4788,
      "Ġ×Ķ×ķ×Ľ×¨": 4789,
      "×Ĳ×ķ×¡": 4790,
      "Ġ×ł×¨×Ĳ×Ķ": 4791,
      "×ĸ×Ļ×Ŀ": 4792,
      "Ġ×Ķ×ª×¨×ĳ×ķ×ª": 4793,
      "×ŀ×ľ×Ļ": 4794,
      "Ġ×Ĳ×ľ×£": 4795,
      "ĊĊĊĊĊĊĊĊ": 4796,
      "}</": 4797,
      "Ġ×ĳ×ĸ×Ľ×ķ×ª": 4798,
      "Ġ×ĵ×Ĵ": 4799,
      "Ġ×Ķ×§×ĳ×¨×ķ×ª": 4800,
      "Ġ×ĳ×Ķ×¨": 4801,
      "×ł×ĺ×Ķ": 4802,
      "'×ľ×¡": 4803,
      "×Ļ×Ļ×¢": 4804,
      "Ġ×ĳ×ĵ×Ļ": 4805,
      "Ġ×Ļ×ľ×ĵ": 4806,
      "Ġ×ŀ×ķ×§×ĵ": 4807,
      "×¤×ľ×Ķ": 4808,
      "Ġ×¢×Ļ×§×¨": 4809,
      "border": 4810,
      "Ġ×ŀ×Ķ×ª": 4811,
      "Ġ×ĵ×ķ×Ĵ": 4812,
      "110": 4813,
      "ash": 4814,
      "×ł×ĺ×Ļ×ª": 4815,
      "Ġ×Ķ×Ĳ×Ļ×ĺ×ľ×§": 4816,
      "Ġ×©×ĺ×¨": 4817,
      "ĠBe": 4818,
      "×ł×¥": 4819,
      "×Ļ×ľ×ķ×¡": 4820,
      "Ġ×ľ×ŀ×ĵ×Ķ": 4821,
      "Ġ×Ķ×Ļ×ĺ": 4822,
      "Ġ×Ľ×ŀ×ł": 4823,
      "×ķ×ł×Ł": 4824,
      "IDT": 4825,
      "Ġ×Ĳ×ĸ×ķ×¨×Ļ×ª": 4826,
      "Ġ×Ķ×¦×¨×¤×ª×Ļ": 4827,
      ">,": 4828,
      "Ġ×©×Ķ×Ĵ×Ļ×¢": 4829,
      "|×§×Ļ×©×ķ×¨": 4830,
      "×¢×ª×ķ": 4831,
      "Ġ×Ķ×Ĳ×Ĺ×¨×ķ×ł×Ķ": 4832,
      "×ĵ×¨×ķ×Ŀ": 4833,
      "×Ļ×ĸ×Ļ×§×Ķ": 4834,
      "Ġ×Ĺ×ĳ×¨×Ļ×Ŀ": 4835,
      "Ġ×¡×Ļ×ķ×ķ×Ĵ": 4836,
      "ll": 4837,
      "Ġ×¤×¨×Ļ×ĸ": 4838,
      "×ķ×ĳ×¡": 4839,
      "Ġ×ŀ×ŀ×¢": 4840,
      "×ķ×¤×§": 4841,
      "×ķ×ķ×Ļ×Ĵ": 4842,
      "Ġ×ľ×ĵ×ķ×Ĵ×ŀ×Ķ": 4843,
      "Ġ×Ľ×ĳ×Ļ×©": 4844,
      "Ġ×ĵ×Ļ×¡": 4845,
      "Ġ×ľ×ŀ×©×¤×Ĺ×Ķ": 4846,
      "Ġ×Ľ×ł×¡": 4847,
      "Ġfrom": 4848,
      "Ġ×Ĺ×ŀ×Ļ×©×Ķ": 4849,
      "Ġ×ŀ×Ľ×ļ": 4850,
      "Ġ×Ķ×ª×ķ×Ĳ×¨": 4851,
      ").{{": 4852,
      "Ġ×ķ×ľ×Ĺ": 4853,
      "×ĳ×ł×ķ×¡×£": 4854,
      "Ġ×ª×Ķ×ľ×Ļ×ļ": 4855,
      ";\"|": 4856,
      "bgcolor": 4857,
      "ican": 4858,
      "×ķ×ľ×ķ×Ĵ×Ļ×ª": 4859,
      "|×¨×Ĳ×©": 4860,
      "Ġ×ķ×ŀ×Ķ": 4861,
      "Ġcell": 4862,
      "×Ļ×¤×Ļ": 4863,
      "Ġ×Ļ×ª×¨": 4864,
      "Ġ×ĳ×©×ł×Ļ": 4865,
      "Ġ×Ĳ×¨×ĵ": 4866,
      "×¨×Ļ×ª": 4867,
      "×ķ×§×Ł": 4868,
      "-t": 4869,
      "Ġ×ĵ×ľ": 4870,
      "Ġ×¡×ĺ×¨": 4871,
      "Ġ×Ķ×ķ×ĵ×ķ": 4872,
      "×ķ×ĳ×Ļ×ł": 4873,
      "Ġ×Ķ×Ĳ×ķ": 4874,
      "×ł×Ĳ×Ļ×Ŀ": 4875,
      "|×¢×¨×ļ": 4876,
      "×Ļ×¢×Ļ×Ł": 4877,
      "Ġ×ŀ×¡×¢": 4878,
      "Ġ×Ľ×ĵ×ķ×¨×Ĵ×ľ": 4879,
      "|×ª×ķ×Ľ×Ł": 4880,
      "Ġ×ľ×ŀ×ª": 4881,
      "Ġ×©×ĳ×Ķ×Ŀ": 4882,
      "\">": 4883,
      "Ġ×ŀ×ķ×¢×ĵ": 4884,
      "Ġby": 4885,
      "Ġ×Ķ×Ĺ×ľ×§": 4886,
      "bb": 4887,
      "Ġ×Ķ×ķ×¦×Ĳ×ª": 4888,
      "×Ļ×©×¨": 4889,
      "×ķ×Ĵ×¨×Ļ×Ŀ": 4890,
      "Ġk": 4891,
      "Ġ×¨×ķ×ĵ": 4892,
      "×ĳ×Ļ×¨×Ķ": 4893,
      "Ġ×Ķ×Ĳ×Ĺ×¨×ķ×ł×ķ×ª": 4894,
      "Ġ×ŀ×¤×ł×Ļ": 4895,
      "Ġ×Ĺ×ĵ×©×ķ×ª": 4896,
      "son": 4897,
      "Ġ×ª×ķ×©×ĳ×Ļ": 4898,
      "ade": 4899,
      "Ġ×ĳ×©×Ļ×ª×ķ×£": 4900,
      "×Ļ×¡×Ł": 4901,
      "Ġ=ĊĊ": 4902,
      "|×Ļ×Ĺ×Ļ×ĵ×Ķ": 4903,
      "Ġ×¢×ķ×ĸ": 4904,
      "Ġ×Ĺ×§×ľ×Ĳ": 4905,
      "×ķ×ł×ª×Ķ": 4906,
      "/n": 4907,
      "<br": 4908,
      "ild": 4909,
      "/http": 4910,
      ":M": 4911,
      "Ġ×Ķ×Ĳ×ķ×Ľ×ľ×ķ×¡×Ļ×Ļ×Ķ": 4912,
      "Ġ×Ķ×©×Ĺ": 4913,
      "Ġ×ľ×Ĳ×¨×¦×ķ×ª": 4914,
      "Ġst": 4915,
      "Ġ×Ļ×Ĺ×¡×Ļ×Ŀ": 4916,
      "×©×ķ×Ł": 4917,
      "×Ļ×¡×ķ×ª": 4918,
      "Ġ×Ķ×Ĳ×¤": 4919,
      "×ŀ×ŀ×©": 4920,
      "250": 4921,
      "Ġ×Ķ×Ľ×ķ×Ĺ×ķ×ª": 4922,
      "Ġ×Ķ×ľ×Ĺ": 4923,
      "Ġ×Ķ×¤×¨×ĺ": 4924,
      "ÙĨ": 4925,
      "Ġ×ŀ×¢×¨×ĳ": 4926,
      "×¦×Ļ×Ł": 4927,
      "Ġ×¤×Ļ×ª×ķ×Ĺ": 4928,
      "×Ļ×Ĵ×ķ": 4929,
      "istory": 4930,
      "Ġ×§×ĺ×ł×Ķ": 4931,
      "×¤×¨×Ļ×Ŀ": 4932,
      "×Ļ×¡×ķ×Ļ": 4933,
      "Ġ×Ķ×Ķ×¡": 4934,
      "Ġ×ŀ×ķ×¢×¦×ª": 4935,
      "=×Ľ×¨×ĸ×ª": 4936,
      "×Ĵ×ł": 4937,
      "Ġ×ľ×ŀ×¢×Ł": 4938,
      "Ġy": 4939,
      "×ķ×§×ĺ×ķ×¨×ĺ": 4940,
      "Ġ×ĳ×¤×ķ×¢×ľ": 4941,
      "dex": 4942,
      "|archive": 4943,
      "Ġ×Ķ×Ľ×ł": 4944,
      "Ġ×¡×Ľ": 4945,
      "Ġth": 4946,
      "Ġ×Ķ×§×ķ×ĵ": 4947,
      "Ġ×Ķ×ŀ×ķ×§×ĵ": 4948,
      "Ġ×§×Ĳ×¨": 4949,
      ".uk": 4950,
      "Ġ×Ķ×¨×ķ×ŀ×Ļ×ª": 4951,
      "Ġ×Ľ×Ĳ×Ł": 4952,
      "×ŀ×Ļ×ľ": 4953,
      "×ª×Ļ×Ļ×©": 4954,
      "Ġ×ľ×ŀ×ĳ": 4955,
      "'×Ļ×ł": 4956,
      "Ġ×Ľ×¨×Ļ×¡×ĺ": 4957,
      "int": 4958,
      "Ġ×Ķ×ª×§×ķ×¤×Ķ": 4959,
      "Ġ×©×ķ×Ĺ×¨": 4960,
      "Ġ×©×Ļ×¨×Ļ": 4961,
      "×ķ×ĳ×Ļ×ª": 4962,
      "Ġ×Ĳ×ŀ×ķ": 4963,
      "Ġ×Ķ×Ľ×ł×¡×Ļ×Ļ×Ķ": 4964,
      "Ġ×ĳ×¡×Ĵ×ł×ķ×Ł": 4965,
      "Ġ×ŀ×ĵ×¢": 4966,
      "Ġ×©×Ĺ×ķ×¨": 4967,
      "×Ļ×ŀ×ķ×Ļ": 4968,
      "=O": 4969,
      "Ġ×ľ×ĸ×Ľ": 4970,
      "Ġ×ľ×©×ŀ×©": 4971,
      "Ġ×ł×¤×ĺ": 4972,
      "Ġhttp": 4973,
      "Ġ×Ķ×©×ĳ×ķ×¢": 4974,
      "×ŀ×ŀ×ľ×Ľ×Ķ": 4975,
      "×Ļ×Ĳ×¨×ĵ": 4976,
      "Ġ×Ķ×Ĳ×©": 4977,
      "Ġ×ŀ×Ĳ×Ļ": 4978,
      "600": 4979,
      "Ġ,": 4980,
      "Ġ×ķ×Ĳ×ĳ": 4981,
      "Ġ×ª×Ĺ×Ļ×ľ×Ķ": 4982,
      "×ł×Ļ×Ļ×ł×Ļ": 4983,
      "Ġ×Ķ×ŀ×ķ×ķ×ª": 4984,
      "Ġ×ª×Ļ×Ĳ×ĺ×¨×ķ×Ł": 4985,
      "Ġ×§×¨×ķ×ĳ": 4986,
      "Ġ×ª×ķ×¦×Ĳ×Ķ": 4987,
      "Ġ×Ķ×ª×¨": 4988,
      "×ķ×¡×ľ×ĳ": 4989,
      "Ġ×Ķ×ª×Ĺ×Ļ×ľ": 4990,
      "EN": 4991,
      "Ġ×Ķ×Ļ×ĳ": 4992,
      "×ľ×ľ×Ĳ": 4993,
      "Ġ×ĳ×Ĳ×Ļ": 4994,
      "Ġ×ĳ×ł×ķ×ª": 4995,
      "red": 4996,
      "Ġ×Ļ×©×ł×Ŀ": 4997,
      "×Ļ×¢×¨": 4998,
      "Ġ×ŀ×Ĳ×ķ×ª": 4999,
      "Ġ×©×Ķ×ķ×§": 5000,
      "uc": 5001,
      "Ð´": 5002,
      "In": 5003,
      "×ķ×ŀ×Ŀ": 5004,
      "Ġ.": 5005,
      "×ķ×ĺ×Ļ×Ł": 5006,
      "ations": 5007,
      "Ġ×Ķ×¨×Ĳ": 5008,
      "Ø§ÙĦ": 5009,
      "Ġ×¦×ķ": 5010,
      "'×ķ×¨": 5011,
      "×Ķ×ĳ": 5012,
      "Ġ×ª×¤×§×Ļ×ĵ×Ļ×Ŀ": 5013,
      "?id": 5014,
      "Ġnews": 5015,
      "×¡×ľ×ķ": 5016,
      "Ġ×ķ×ŀ×§": 5017,
      "×ŀ×ķ×¨×Ķ": 5018,
      "Ġ×Ķ×ĳ×ª": 5019,
      "Ġ×ľ×Ĵ×ĳ×Ļ": 5020,
      "Ã³": 5021,
      "×ŀ×ĵ×ķ×ª": 5022,
      ".aspx": 5023,
      "-n": 5024,
      "×ŀ×¢×¨×Ļ×ĳ": 5025,
      "Ġ×Ľ×ķ×ľ×ľ×ª": 5026,
      "|first": 5027,
      "Ġ×©×ŀ×Ĺ": 5028,
      "×ª×£": 5029,
      "Ġ×ŀ×©×§": 5030,
      "Ġ×ĳ×¤×¢": 5031,
      "×Ĵ×¨×ķ×ª": 5032,
      "Ġ×ŀ×©×ª×ŀ×©×Ļ×Ŀ": 5033,
      "Ġ×ŀ×©×¤×Ĺ×Ķ": 5034,
      "ĠOr": 5035,
      "Ġ×¢×ľ×Ļ": 5036,
      "Ġ×ŀ×ķ×ĵ×¨": 5037,
      "Ġ×Ķ×¨×Ľ×ĳ": 5038,
      "Ġ×ł×¤×ª": 5039,
      "|display": 5040,
      "Ġ×Ķ×ķ×ķ×¢×ĵ×Ķ": 5041,
      "Ġ×¡×ķ×¤": 5042,
      "ier": 5043,
      "Ġ×¤×¨×Ĳ": 5044,
      "Ġ×Ĳ×ĳ×Ļ×Ķ": 5045,
      "×ķ×ł×©": 5046,
      "Ġ×Ĺ×ĳ": 5047,
      "×ķ×ŀ×Ļ×§×¡": 5048,
      "800": 5049,
      "Ġj": 5050,
      "×Ĺ×¨×ķ×Ļ×ķ×ª": 5051,
      "'×Ł": 5052,
      "×ł×ķ×ĳ": 5053,
      "Ġ×ľ×¤×ª": 5054,
      "Ġ×Ļ×¨×ĵ": 5055,
      "Ġ×¤×¨×ķ×Ļ×§×ĺ": 5056,
      "Ġ×Ķ×ł×ĳ×Ĺ×¨×ª": 5057,
      "Ġ×ł×ŀ×¦×Ĳ×Ļ×Ŀ": 5058,
      "Ġ×Ĵ×ķ×£": 5059,
      "ision": 5060,
      "Ġ×©×Ļ×¦×Ĳ": 5061,
      "'|": 5062,
      "×Ķ×Ļ×Ĳ": 5063,
      "×Ļ×ŀ×¨": 5064,
      "Ġ×Ķ×Ĳ×ŀ×¨×Ļ×§×Ĳ×Ļ×ª": 5065,
      "Ġ×¤×¨×ķ×¤": 5066,
      "Ġ×Ķ×Ļ×¡×ĺ×ķ×¨": 5067,
      "×Ļ×Ļ×ľ×Ļ×Ŀ": 5068,
      "Ġ×Ľ×Ķ×ķ×ł×Ķ": 5069,
      "Ġ×¡×Ĵ×Ł": 5070,
      "air": 5071,
      "Ġ×ŀ×ĸ×ķ×Ł": 5072,
      "Ġ×Ķ×©×ł×Ļ×Ļ×Ŀ": 5073,
      "Ġ×ľ×ĸ×Ķ": 5074,
      "Ġ×ľ×§×ĳ×ķ×¦×ª": 5075,
      "/t": 5076,
      "Ġ×ª×§×ķ×ķ×Ķ": 5077,
      "×¤×Ļ×¨×Ķ": 5078,
      "Ġ×Ĺ×ķ×ľ×Ļ×Ŀ": 5079,
      "Ġ×ŀ×Ļ×ķ×Ĺ×ĵ": 5080,
      "×ł×ļ": 5081,
      "Ġ×Ķ×ª×ŀ×ł×Ķ": 5082,
      "Ġor": 5083,
      "Ġ×Ĵ×¨×¡×Ķ": 5084,
      "|×ĺ×ĳ×ª": 5085,
      "Ġ×Ĺ×ķ×ĳ": 5086,
      "×Ļ×ŀ×Ļ×Ķ": 5087,
      "×Ļ×ĺ×ķ": 5088,
      "×ķ×ĵ×ķ×¨": 5089,
      "Ġ×Ķ×ķ×¦×Ļ×Ĳ×Ķ": 5090,
      "bum": 5091,
      "×Ļ×Ľ×ķ×ĸ": 5092,
      "Ġ×ķ×Ļ×§": 5093,
      "Ġ×Ĵ×ĵ×ķ×ľ×ķ×ª": 5094,
      "Ġ×ŀ×ķ×¢×ĵ×ķ×Ł": 5095,
      "×Ķ×Ĺ×ľ": 5096,
      "×ĺ×¨×ª": 5097,
      "×Ĺ×§×ł×Ļ×ª": 5098,
      "Ġ×ķ×Ķ×Ĵ": 5099,
      ".j": 5100,
      "×Ļ×ŀ×ķ×ĵ×Ļ": 5101,
      "×ŀ×¤×ľ×Ĵ×Ķ": 5102,
      "eed": 5103,
      "Ġ×ľ×¦×Ļ×ķ×Ł": 5104,
      "Ġ×ķ×ĳ×Ķ×ŀ×©×ļ": 5105,
      "Ġ×Ļ×Ľ×ķ×ľ×Ķ": 5106,
      "Ġ×Ķ×Ļ×Ĺ×¡×Ļ×Ŀ": 5107,
      "×ľ×Ļ×Ļ×Ķ": 5108,
      "×ĳ×¢×Ļ×Ŀ": 5109,
      "-in": 5110,
      ":P": 5111,
      "×Ĺ×ķ×¨×Ļ": 5112,
      "Ġ×Ķ×©×§": 5113,
      "×Ļ×Ļ×ĺ": 5114,
      "Ġ×Ķ×ł×Ĺ": 5115,
      "Ġ×ŀ×¦×ľ×Ļ×Ĺ": 5116,
      "Ġ×ķ×ĸ×Ľ×Ķ": 5117,
      "Ġ×Ĺ×Ļ×Ļ×ľ×Ļ×Ŀ": 5118,
      "Ġ×ĳ×¡×ķ×¤×ķ": 5119,
      "Ġ×ŀ×¨×Ļ×Ķ": 5120,
      "×ŀ×¦×¢": 5121,
      "Ġ×¡×¨×ĺ×Ļ×Ŀ": 5122,
      "Ġ×Ķ×©×ª×ŀ×©": 5123,
      "×Ļ×¤×Ĳ": 5124,
      "Ġ×Ĳ×¡×ĺ×¨": 5125,
      "Ġ×ŀ×¦×¨×Ļ×Ŀ": 5126,
      "Ġ×Ĵ×¨×Ĳ": 5127,
      "Ġ×ŀ×Ķ×¡": 5128,
      "aa": 5129,
      "Ġ×ŀ×¡×Ĺ×¨": 5130,
      "Ġ×Ķ×ĵ×ª": 5131,
      "Ġ×Ķ×¢×¨×ķ×ª": 5132,
      "-×ŀ×¢": 5133,
      "Ġ×ľ×Ĳ×ķ×ŀ×Ļ": 5134,
      "Ġ×ĳ×ľ×Ĳ": 5135,
      "Ġ×§×¨×Ļ": 5136,
      "×Ļ×Ĺ×ķ×¡": 5137,
      "×ł×¡×Ļ": 5138,
      "Ġ×ł×ª×Ł": 5139,
      "act": 5140,
      "Ġ×ŀ×¨×§": 5141,
      "Ġ×ŀ×¦×ķ×Ļ": 5142,
      "Ġ×Ĳ×Ļ×ĸ": 5143,
      "×Ľ×Ĳ×©×¨": 5144,
      "×ķ×ĵ×ĵ": 5145,
      "Ġ×Ķ×¢×Ļ×ª×ķ×Ł": 5146,
      "'×Ļ×¨": 5147,
      "×ª×Ŀ": 5148,
      "×ŀ×Ĳ×Ľ×ĺ": 5149,
      "Ġ</": 5150,
      "ivers": 5151,
      "×ľ×Ļ×Ĵ×Ķ": 5152,
      "Ġ×Ķ×ł×¨×Ļ": 5153,
      "Ġ×ĳ×Ĳ×ķ×ľ×Ļ×ŀ×¤×Ļ×Ĳ×ĵ×ª": 5154,
      "Ġ×ŀ×ķ×¨×©×ª": 5155,
      "×Ļ×ľ×ĳ": 5156,
      "atus": 5157,
      "Ġ×Ļ×ķ×¦×¨": 5158,
      "×Ļ×Ľ×ķ": 5159,
      "Ġ×©×Ļ×ł×ķ×Ļ": 5160,
      "Ġ×ŀ×ŀ×Ĺ": 5161,
      "×ķ×§×Ĳ": 5162,
      "Ġ×ĳ×ŀ×§×¨×Ķ": 5163,
      "crip": 5164,
      "|×ĳ×¨": 5165,
      "×Ĳ×¨×Ļ×Ŀ": 5166,
      "171": 5167,
      "Ġ×¡×¢": 5168,
      "âĢ¢": 5169,
      ".ru": 5170,
      "Ġ×Ķ×ŀ×ł×Ķ": 5171,
      "Ġ×Ĳ×ķ×ĳ": 5172,
      "×ķ×ķ×ľ": 5173,
      "114": 5174,
      "Ġ×ŀ×¨×Ĳ×©": 5175,
      "Ġ×ľ×©×Ļ×ŀ×ķ×©": 5176,
      "Ġ×ĳ×¡×ŀ×ķ×ļ": 5177,
      "Ġ×¤×¨×ķ×¤×¡×ķ×¨": 5178,
      "|×ŀ×¢": 5179,
      "_s": 5180,
      "×©×ķ×¨": 5181,
      "Ġ×Ľ×ķ×Ľ×ĳ×Ļ×Ŀ": 5182,
      "Ġ×ĳ×ª×Ļ×Ĳ×ĺ×¨×ķ×Ł": 5183,
      "Ġ×ķ×¡×ĺ": 5184,
      "×¨×ª×Ļ": 5185,
      "Ġ×ł×©×Ĳ": 5186,
      "×ľ×ľ×Ķ": 5187,
      "×ł×Ľ×ķ×Ł": 5188,
      "Ġ×Ķ×Ĳ×§×ĵ×ŀ×Ļ×Ķ": 5189,
      "ĠHe": 5190,
      "US": 5191,
      "Ġ×ĳ×©×ª×Ļ": 5192,
      "Ġ×¦×Ļ×ľ×ķ×Ŀ": 5193,
      "×§×Ļ×Ł": 5194,
      "Ġ×ķ×Ļ×§×ĺ": 5195,
      "Ġ×ł×ķ×ª×¨": 5196,
      "Ġ×ŀ×Ļ×ľ×Ļ×Ŀ": 5197,
      ".}}ĊĊ": 5198,
      "×ķ×ĳ×§×Ļ×Ķ": 5199,
      "coord": 5200,
      "Ġ×¤×ľ×ĺ": 5201,
      "Ġ×ľ×¢×©×ķ×ª": 5202,
      "pp": 5203,
      "Ġ×Ķ×ŀ×Ļ×ľ": 5204,
      "Ġ×ŀ×¨×Ľ×ĸ×Ļ": 5205,
      "Ġ×¢×ķ×ª": 5206,
      "Ã¼": 5207,
      "ames": 5208,
      "Ġ×ķ×Ĳ×Ĺ": 5209,
      "Ġ×Ķ×ª×¤×¨": 5210,
      "Ġ×ľ×Ľ×ª×ķ×ĳ": 5211,
      "Ġ×Ķ×ŀ×ķ×ĸ×Ļ×§": 5212,
      "Ġ×ĳ×ľ×ĳ": 5213,
      "×ķ×¤×¢": 5214,
      "Ġ×©×ľ×Ļ": 5215,
      "/g": 5216,
      "×Ļ×¢×Ļ×Ŀ": 5217,
      "Ġ×ĵ×Ĵ×Ŀ": 5218,
      "Ġ×©×ŀ×Ĳ": 5219,
      "Ġ×ĳ×¨×Ĺ×ķ×ĳ": 5220,
      "Ġ×Ľ×¨×Ĳ×©": 5221,
      "×¨×ª×ķ": 5222,
      "Ġ×¤×ķ×¨×¡×Ŀ": 5223,
      "×Ĵ×Ĳ": 5224,
      "×ľ×ķ×ķ×Ķ": 5225,
      "Ġ×Ķ×©×ĳ×Ļ×¢": 5226,
      "×ł×Ļ×ķ×Ł": 5227,
      "Ġ×Ľ×ľ×Ľ×ľ": 5228,
      "177": 5229,
      "Ġ×§×Ļ×Ļ×ŀ×ª": 5230,
      "Ġ×¢×¦×ŀ×Ĳ": 5231,
      "Ġ×Ĵ×Ĳ×ķ×¨×Ĵ": 5232,
      "adding": 5233,
      "oogle": 5234,
      "/?": 5235,
      "=inline": 5236,
      "div": 5237,
      "×ĺ×Ł": 5238,
      "×Ļ×ł×ķ×¨": 5239,
      "Ġ×ĳ×ł×Ļ×Ĵ×ķ×ĵ": 5240,
      "Ġ×©×ķ×ķ×ĵ×Ļ×Ķ": 5241,
      "ai": 5242,
      "Ġ×¨×Ĺ×ķ×ĳ": 5243,
      "Ġ×Ĳ×ķ×ĵ×ķ×ª": 5244,
      "Ġ×ł×ķ×ľ×ĵ×ķ": 5245,
      "site": 5246,
      "Ġ×ł×ķ×ª": 5247,
      "Ġ×Ķ×§×Ļ×¡×¨": 5248,
      "Ġ×ŀ×Ĳ×ķ×ł×Ļ×ĳ×¨×¡×Ļ×ĺ×ª": 5249,
      "|×Ĳ×ľ×ĳ×ķ×Ŀ": 5250,
      "Ġ×ķ×¢×Ŀ": 5251,
      "Ġ×ŀ×¡×ķ×Ļ×Ŀ": 5252,
      "×Ķ×ł": 5253,
      "Ġ×Ķ×¨×Ĵ": 5254,
      "Ġ×ª×ķ×Ľ×ł×Ļ×ķ×ª": 5255,
      "Ġ×ŀ×Ĵ×ĵ": 5256,
      "=center": 5257,
      "×ķ×§×ķ×ª": 5258,
      "×ŀ×Ļ×ł×Ļ×Ŀ": 5259,
      "Ġ×ķ×Ĳ×ĸ": 5260,
      "101": 5261,
      "Ġ×¨×ķ×ĺ": 5262,
      "×ŀ×ª×Ļ": 5263,
      "Ġ×ŀ×¢×ķ×¨": 5264,
      "×ķ×ŀ×Ļ×ł": 5265,
      "×ķ×ĸ×£": 5266,
      "×ł×Ļ×§×Ķ": 5267,
      "×¨×ĳ×¢": 5268,
      "Ġ×ĳ×¨×©×ª": 5269,
      "Ġ×ŀ×Ĳ×¤×©×¨": 5270,
      "×Ļ×Ľ×ķ×ľ": 5271,
      "×ķ×ł×Ĵ×¨×Ļ×ª": 5272,
      "'×¡": 5273,
      "Ġ×Ķ×¤×ł": 5274,
      "Ġ×Ķ×Ĵ×ł×Ķ": 5275,
      "Ġ×ŀ×¤×ľ×Ĵ×ª": 5276,
      "ife": 5277,
      "Ġ×ĺ×Ĳ": 5278,
      "×ł×ĳ×ķ×¨×Ĵ": 5279,
      "Ġ×Ĳ×ľ×Ļ": 5280,
      "ĠIs": 5281,
      "Ġ×§×ĳ×ķ×¨×Ķ": 5282,
      "Ġ×Ķ×ķ×§×ľ×ĺ": 5283,
      "Ġ×Ķ×ŀ×ķ×¡": 5284,
      "×ĵ×¨×Ļ": 5285,
      "Ġ×¡×ĵ": 5286,
      "×ķ×ŀ×¡": 5287,
      "Ġ×ĳ×ª×Ĺ×Ļ×ľ×Ķ": 5288,
      ");": 5289,
      ".y": 5290,
      "Ġ×Ķ×Ĵ×Ĳ": 5291,
      "Ġ×ľ×¢×ĳ×¨×Ļ×ª": 5292,
      "×Ļ×ľ×Ļ×ª": 5293,
      "Ġ×Ķ×ķ×ĺ": 5294,
      "×ĳ×¡×Ļ×¡": 5295,
      "×Ļ×ĺ×Ļ×Ļ×Ŀ": 5296,
      "iel": 5297,
      "'×ķ×ł": 5298,
      "×¤×ĺ×Ł": 5299,
      "160": 5300,
      "Ġ×ĺ×Ļ×¤": 5301,
      "×§×ĺ×ķ×¨": 5302,
      "Ġ×©×ķ×§": 5303,
      "Ġ×ĳ×¤×¡×ĺ×Ļ×ĳ×ľ": 5304,
      "Ġ×ĳ×¢×¨×ļ": 5305,
      "×ŀ×ĳ×ł×Ķ": 5306,
      "×Ļ×¦×Ĺ": 5307,
      "ung": 5308,
      "×Ĳ×ľ×ĳ×ķ×Ŀ": 5309,
      "TC": 5310,
      "'×Ļ×Ł": 5311,
      "×ĺ×Ļ×¡×ĺ×Ļ×§×ķ×ª": 5312,
      "Ñı": 5313,
      "×Ļ×ĵ×ķ×Ŀ": 5314,
      ":B": 5315,
      "AR": 5316,
      ">.": 5317,
      "Ġ×Ķ×ŀ×§×ķ×ŀ×Ļ×ª": 5318,
      "×ķ×©×¢": 5319,
      "Ġ×Ľ×ľ×¤×Ļ": 5320,
      "×ķ×¢×¦×Ķ": 5321,
      "×ľ×¤×Ļ": 5322,
      "Ġ×ł×Ļ×©×Ĳ": 5323,
      "×ķ×ĺ×Ļ×ķ×ĳ": 5324,
      "Ġ×ĳ×©×Ļ×ŀ×ķ×©": 5325,
      "Ġ×Ķ×¢×ŀ×ŀ×Ļ×ª": 5326,
      "Ġ×ł×¤×ª×Ĺ": 5327,
      "Ġ×§×ł": 5328,
      "×Ļ×§×ķ×¨": 5329,
      "let": 5330,
      "170": 5331,
      "113": 5332,
      "Ġ×ĳ×¡×ļ": 5333,
      "Ġ×Ĵ×ĳ×¨": 5334,
      "Ġ×Ķ×©×¨": 5335,
      "Ġ×Ļ×©×Ļ×ĳ×ª": 5336,
      "Ġ×ĳ×ŀ×Ķ×Ļ×¨×ķ×ª": 5337,
      "62": 5338,
      "Ġ×©×ŀ×¨": 5339,
      "Ġ×Ķ×¢×Ļ×§×¨×Ļ": 5340,
      "Ġ×¤×Ļ×¨×ķ×ĺ": 5341,
      "Ġ×Ĳ×ĵ×ķ×Ŀ": 5342,
      ".net": 5343,
      "Ġ×ĳ×ª×ķ×Ĳ×¨": 5344,
      "ĠII": 5345,
      "Ġ×Ķ×ķ×ľ×ĵ": 5346,
      "×Ļ×Ķ×ĵ×ķ×ª": 5347,
      "Ġ×¤×ľ×Ĳ": 5348,
      "Ġ×Ķ×ĵ×¨×ļ": 5349,
      "Ġ×ĵ×Ĵ×ľ": 5350,
      "Ġ×©×ķ×ª×£": 5351,
      "ae": 5352,
      "âĢĻ": 5353,
      "Ġ×¢×§": 5354,
      "Ġ×ŀ×ľ×Ĺ×ŀ×Ķ": 5355,
      "Ġ×Ļ×©×¨×Ĳ×ľ×Ļ": 5356,
      "Ġ×ŀ×¢×ķ×¨×ĳ": 5357,
      "Ġ×ķ×ľ×§": 5358,
      "|×Ĳ×ĳ": 5359,
      "×Ķ×¨×ĳ": 5360,
      "Ġ×ĳ×ĳ×ľ": 5361,
      "ail": 5362,
      "Ġ×ĳ×¢×ľ×Ķ": 5363,
      "×Ľ×¤×¨": 5364,
      "Ġ×Ķ×¨×¢": 5365,
      "×Ļ×¢×ķ": 5366,
      "=×ĺ": 5367,
      "Ġ×Ļ×ķ×ľ×Ļ": 5368,
      "Ġ×¤×ķ×ł×§": 5369,
      "Ġ×ŀ×©×§×ľ": 5370,
      "Ġ×ĵ×Ł": 5371,
      "Ġ×Ķ×ŀ×§×¦×ķ×¢": 5372,
      "Ġ×¢×ĳ×¨×ķ": 5373,
      "|-ĊĊĊ": 5374,
      "Ġ×¡×¤×¨×ķ": 5375,
      "raph": 5376,
      "Ġ×ĳ×ŀ×¢×¨×Ľ×ª": 5377,
      "Ġ×©×ĳ×Ļ×Ł": 5378,
      "Ġ×Ķ×ŀ×Ĺ×§×¨": 5379,
      "Ġ×ł×Ļ×§×ķ×ľ": 5380,
      "Ġ×ľ×ĳ×¦×¢": 5381,
      "×¦×¢×Ļ×Ŀ": 5382,
      "Ġ×ľ×ł×¡": 5383,
      "×ķ×Ĵ×¢": 5384,
      ":C": 5385,
      "×Ĳ×ķ×¨×ļ": 5386,
      "|+": 5387,
      "Ġ×ĳ×¢×¨×ĳ×Ļ×ª": 5388,
      "×©×ª×Ķ": 5389,
      "Ġ×ľ×ķ×ĵ": 5390,
      "Ġ×ĵ×Ļ×Ļ×ķ×ķ×Ļ×ĵ": 5391,
      "Ġ×Ľ×Ļ×ł×ķ×Ļ": 5392,
      "ance": 5393,
      "Ġ||Ċ": 5394,
      "Ġ×ŀ×©×Ĺ×§×Ļ": 5395,
      "×ķ×¢×ĵ×ª": 5396,
      "×ŀ×ł×Ķ×Ļ×Ĵ": 5397,
      "Ġwith": 5398,
      "Ġ×Ľ×©×Ķ×ķ×Ĳ": 5399,
      "\"ĊĊ": 5400,
      "×ĵ×ĺ": 5401,
      "82": 5402,
      "ars": 5403,
      "Ġ×Ĳ×Ļ×ł×ĵ": 5404,
      "Ġ×Ķ×ŀ×©×ĺ×¨×Ķ": 5405,
      "'×Ĳ×¨×ľ×¡": 5406,
      "×ł×ķ×Ļ×ķ×ª": 5407,
      "NA": 5408,
      "Ġ×ŀ×ľ×Ĺ": 5409,
      "Ġ×ĳ×ŀ×ŀ": 5410,
      "×Ļ×¤×ķ×©": 5411,
      "Ġ×Ĵ×¨×Ŀ": 5412,
      "×ķ×ľ×Ł": 5413,
      "Ġ×ľ×§×Ķ": 5414,
      "Ġ×ł×¡×Ļ×ļ": 5415,
      "Ġ×ĳ×Ĳ×ķ×ł×Ļ×ĳ×¨×¡×Ļ×ĺ×Ķ": 5416,
      "ins": 5417,
      "Ġ×ŀ×Ĺ×ľ×§×ª": 5418,
      "×ķ×¡×ĺ×ķ×Ł": 5419,
      "Ġ×¦×¨×Ļ×ļ": 5420,
      "×ŀ×Ĳ×ĸ": 5421,
      "Ġ×ŀ×ŀ×ķ×§": 5422,
      "Ġ×ª×¤×§×Ļ×ĵ×ķ": 5423,
      "Ġe": 5424,
      "Ġ×¨×§×ķ×¨×ĵ": 5425,
      "=×¤": 5426,
      "Ġ×ł×¦": 5427,
      "-R": 5428,
      "Ġ×Ĳ×§×ĵ": 5429,
      "\"×ª": 5430,
      "×Ĺ×ª×Ŀ": 5431,
      "Ġ×ŀ×¤×Ļ×§": 5432,
      "ition": 5433,
      "Ġ×Ķ×ª×¨×Ĺ": 5434,
      "|×ŀ×¨": 5435,
      "Ö¼×ķ": 5436,
      "×Ĺ×Ļ×ª": 5437,
      "Ġ×Ĳ×¡×Ļ×Ķ": 5438,
      "Ġ×ŀ×ª×Ĳ": 5439,
      "Ġsh": 5440,
      "×ķ×¤×ľ": 5441,
      "Ġ×Ķ×ª×§×Ļ": 5442,
      ",title": 5443,
      "Ġ×Ķ×ĸ×Ľ": 5444,
      "Ġ×Ķ×ŀ×ķ×ĵ": 5445,
      "Ġ×Ķ×¤×ľ×¡×ĺ": 5446,
      "Ġ×ĳ×ŀ×©×¨×ĵ": 5447,
      "des": 5448,
      "Ġ×Ķ×§×¨×§×¢": 5449,
      "Ġ×ĳ×Ĵ×ŀ×¨": 5450,
      "Ġ×ĳ×ľ×Ķ": 5451,
      "Ġ×ĳ×ĵ×ķ×ŀ×Ķ": 5452,
      "ĠLove": 5453,
      "EFEF": 5454,
      "-×ĸ": 5455,
      "83": 5456,
      "×Ļ×ľ×Ł": 5457,
      "Ġ×¤×Ļ×ľ×Ļ×¤": 5458,
      "Ġ×ľ×Ĵ×ľ": 5459,
      "Ġ×Ķ×¤×¨×ķ": 5460,
      "Ġ×ľ×ŀ×©×ļ": 5461,
      "-the": 5462,
      "72": 5463,
      "|align": 5464,
      "Ġ×ľ×ĳ×¢": 5465,
      "ÙĪ": 5466,
      "Ġ×Ķ×ĳ×ķ×ľ×ĺ": 5467,
      "×Ľ×Ķ×Ł": 5468,
      "Ð¾Ð²": 5469,
      "Ġ×Ķ×ŀ×ľ×Ľ×ķ×ª×Ļ": 5470,
      "×ľ×Ĳ×Ŀ": 5471,
      "Ġ×ł×ķ×ĳ": 5472,
      "Ġ×Ķ×¡×¤×ķ×¨×ĺ": 5473,
      "ict": 5474,
      "\"),": 5475,
      "]}}ĊĊ": 5476,
      "lan": 5477,
      "|×ŀ×ł": 5478,
      "×ĵ×¨×Ļ×Ľ×ľ": 5479,
      "IM": 5480,
      "Ġ×Ĺ×Ļ×ł×ķ×ļ": 5481,
      "=×ĳ": 5482,
      "Ġ×Ĵ×ĳ×Ļ": 5483,
      ":ĊĊĊ": 5484,
      "Ġ×ŀ×©×ł×Ļ": 5485,
      "×ķ×Ľ×ª": 5486,
      "Ð¹": 5487,
      "×ª×ª×¤×Ļ×Ŀ": 5488,
      "Ġ×ĳ×©×¤×Ķ": 5489,
      "Ġ×Ĳ×Ĺ×¨×Ļ×ķ": 5490,
      "×Ļ×ĸ×¨": 5491,
      "Ġ×ŀ×Ķ×§": 5492,
      "Ġ×ľ×Ĺ×ľ×§": 5493,
      "Ġ×Ķ×§×ķ×ľ": 5494,
      "×©×ª×ª×¤×ķ×ª": 5495,
      "'×ª×©": 5496,
      "Ġ×ª×ķ×¨": 5497,
      "×Ĳ×ł×¡": 5498,
      ":F": 5499,
      "Ġ×ŀ×ŀ×ķ×§×Ŀ": 5500,
      "63": 5501,
      "×Ľ×ª×ĳ×ķ": 5502,
      "Ġ×Ķ×ĺ×ķ×ĳ×Ķ": 5503,
      "Ġ×ŀ×Ķ×¤": 5504,
      "Ġ×Ĳ×ľ×Ĵ": 5505,
      "Ġ×ĳ×¨×ĸ×Ļ×ľ": 5506,
      "×Ļ×ķ×ł×Ļ": 5507,
      "|R": 5508,
      "ram": 5509,
      "Ġ×ĸ×Ľ×ķ": 5510,
      "Ġ×Ķ×Ĵ×¨×ŀ×ł×Ļ×Ŀ": 5511,
      "Ġ×©×Ļ×¤": 5512,
      "Ġ×Ķ×©×ĺ×Ĺ": 5513,
      "Ġ×Ĳ×ķ×¨×Ĺ": 5514,
      "urn": 5515,
      "mp": 5516,
      "×ķ×¨×Ļ×ķ": 5517,
      "lap": 5518,
      "ys": 5519,
      "Ġ×ł×¦×Ļ×Ĵ": 5520,
      "Ġ×¤×ł×Ļ×Ŀ": 5521,
      "Ġ×Ĺ×ķ×¥": 5522,
      "Ġ×Ķ×Ĵ×ķ×£": 5523,
      "<noinclude": 5524,
      "olog": 5525,
      "×Ļ×Ļ×¨×ķ×ª": 5526,
      "Ġ×ĵ×ł×Ļ×Ĳ×ľ": 5527,
      "Ġ×Ĳ×ŀ×ł": 5528,
      "Ġ×§×ķ×¨×¡": 5529,
      "Ġ×ķ×Ĳ×Ł": 5530,
      "Ġ×¢×ķ×ĳ×ĵ×Ļ×Ŀ": 5531,
      "×ĳ×ķ×¨×ª": 5532,
      "Ġ×ķ×ľ×ĵ": 5533,
      "Ġ×Ļ×Ĺ×Ļ×ĵ": 5534,
      "Ġ×©×ł×¢×¨×ļ": 5535,
      "Ġ×ŀ×ĳ×ķ×¡×¡": 5536,
      "Ġ×ķ×Ļ×ľ×Ķ": 5537,
      "×©×ķ×ķ×Ł": 5538,
      "Ġ×ŀ×ķ×¨×Ľ": 5539,
      "Ġ×Ľ×ł×¡×ª": 5540,
      "Ġ×Ķ×ŀ×¢×¨×ĳ×Ļ": 5541,
      "Ġ×Ľ×¢×ĳ×ķ×¨": 5542,
      "Ġ×¤×Ĳ×¨×§": 5543,
      "Ġ×ŀ×ĳ×Ļ×ª": 5544,
      "Ġ×ĳ×Ĺ×ľ": 5545,
      "Ġ×Ķ×ª×ĸ×ŀ×ķ×¨×ª": 5546,
      "Ġ×Ķ×ķ×ł": 5547,
      "Ġ×¢×ľ×Ļ×Ķ×Ŀ": 5548,
      "Ġ×ĳ×¨×ľ×Ļ×Ł": 5549,
      "Ġ×Ķ×Ľ×ķ×ľ×ľ": 5550,
      "Ġ×§×ľ×Ļ×¤": 5551,
      "×¢×ķ×Ł": 5552,
      "Ġ×ł×¤×¨": 5553,
      "'×Ļ×Ļ": 5554,
      "Ġ×ª×ķ×ŀ×Ĳ×¡": 5555,
      "Ġ×Ĺ×©×ŀ×ľ": 5556,
      "Ġ×¢×¨×ķ×¥": 5557,
      ")|": 5558,
      "Ġ×ĳ×¨×Ĵ": 5559,
      "Ġ×ľ×ķ×¨": 5560,
      "ĠNew": 5561,
      "Ġ×Ĳ×Ļ×Ļ×ľ": 5562,
      "Ġ×ŀ×ķ×ĸ×Ļ×Ĳ×ķ×Ł": 5563,
      "521": 5564,
      "Ġ×ķ×Ļ×ł": 5565,
      "×ł×ĵ×¡": 5566,
      "×ĵ×¨×Ļ×Ľ×ľ×ķ×ª": 5567,
      "61": 5568,
      "Ġ×ĳ×Ĵ×¨": 5569,
      "-×¤": 5570,
      "Ġ×ķ×¨×§": 5571,
      "Ġ×Ķ×©×ķ×ł×Ļ×Ŀ": 5572,
      "Ġ×¤×¢×ķ×ľ×ķ×ª": 5573,
      "Ġ×¢×©×ķ×Ļ": 5574,
      "Ġ×ľ×ŀ×ł×ķ×¢": 5575,
      "×ķ×ł×Ļ×¡": 5576,
      "Ġ×ł×ķ×©×Ĳ": 5577,
      "×ķ×Ļ×§×Ļ×¤×ĵ×Ļ×Ķ": 5578,
      "×¡×ķ×§": 5579,
      "own": 5580,
      "Ġ×Ķ×¦×¤×ķ×ł×Ļ": 5581,
      "Ġ×Ķ×ľ×ľ×ķ": 5582,
      "Ġ×Ķ×ĵ×ĳ×¨": 5583,
      "×Ļ×§×ľ×ķ×¤": 5584,
      "=×¤×¨": 5585,
      "ors": 5586,
      "-F": 5587,
      "Ð¼": 5588,
      "Ġ×ĳ×¤×¢×Ŀ": 5589,
      "Ġ×Ķ×ĳ×¡×Ļ×¡": 5590,
      "Ġ×Ĺ×ľ×§×Ļ×Ŀ": 5591,
      "×ķ×ľ×ĺ×Ķ": 5592,
      "Ġ×¨×§×ķ×¨×ĵ×¡": 5593,
      "Ġ×ķ×ĳ×§": 5594,
      "Ġ×§×ĺ×ł×ķ×ª": 5595,
      "|publisher": 5596,
      "Ġ×ĳ×Ļ×Ĺ×¡": 5597,
      "×¤×¡×ĵ": 5598,
      "Ġr": 5599,
      "Ġ×ĳ×Ĳ×ľ×ĳ×ķ×Ŀ": 5600,
      "Ġ×¦×ķ×¨": 5601,
      "Ġ×ľ×Ļ×ľ×ĵ×Ļ×Ŀ": 5602,
      "×ł×£": 5603,
      "×¢×¨×ķ×Ľ×Ķ": 5604,
      ".t": 5605,
      "Ġ×§×¤": 5606,
      "Ġ×§×Ļ×ĳ×ķ×¥": 5607,
      "×ŀ×ķ×ł": 5608,
      "×©×ķ×ł×ķ×ª": 5609,
      "Ġ×ł×©×§": 5610,
      "Ġ×ŀ×ĺ×Ķ": 5611,
      "|type": 5612,
      "Ġ×¨×ķ×ŀ×Ĳ": 5613,
      "×ķ×§×Ļ×Ļ×ł×ķ×¡": 5614,
      "Ġ×Ķ×ĳ×Ļ×ł×Ļ×Ļ×Ŀ": 5615,
      "Ġ×©×Ĳ×Ļ×Ł": 5616,
      "Ġ×¢×¡×§×Ļ×Ŀ": 5617,
      "Ġ×ĳ×ł×Ķ": 5618,
      "Ġ×©×Ļ×§": 5619,
      "ree": 5620,
      "×¨×Ľ×Ļ": 5621,
      "Ġ×ķ×Ķ×ĳ": 5622,
      "Ġ×ª×§×©×ķ×¨×ª": 5623,
      "×ķ×Ĳ×ķ": 5624,
      "×Ļ×ĵ×Ĵ": 5625,
      "ise": 5626,
      "Ġ×¤×¨×Ļ×ĵ×¨×Ļ×ļ": 5627,
      "×Ļ×§×Ĳ×Ļ": 5628,
      "×ľ×ŀ×ķ×ĵ": 5629,
      "Ġ×ŀ×ķ×ł×ĺ": 5630,
      "×Ļ×ķ×ķ×Ļ": 5631,
      "Ġ×¨×Ļ×ĳ": 5632,
      "×Ļ×¨×ķ×Ĵ×Ļ×Ŀ": 5633,
      "Ġ×Ķ×ł×ĵ": 5634,
      "Ġ×Ķ×ŀ×Ļ×ľ×Ķ": 5635,
      "=×¡×ŀ×ľ": 5636,
      "×ķ×¤×©": 5637,
      "Ġ×Ļ×Ĳ": 5638,
      "Ġ×Ķ×ŀ×ľ×Ĳ": 5639,
      "×ŀ×¨×Ļ×§×Ķ": 5640,
      "×¦×Ļ×ĺ×ķ×ĺ×ķ×Ł": 5641,
      "Ġ×ł×ŀ×Ľ": 5642,
      "Ġ×ŀ×Ĺ×©": 5643,
      "×ŀ×¦×¢×Ļ": 5644,
      "Ġ×ĳ×¦×ĳ×Ĳ": 5645,
      "Ġ×ĳ×Ĳ×ŀ×¦×¢": 5646,
      "×ķ×¨×ŀ×Ĳ×Ľ×ĺ": 5647,
      "Ġ×ľ×ŀ×ķ×ĸ×Ļ×§×Ķ": 5648,
      "Ġ×Ķ×Ļ×¦": 5649,
      "Ġ×Ķ×ª×ł×Ĵ×ĵ": 5650,
      "Ġ×Ķ×Ĳ×¨×ŀ×Ļ×Ļ×Ķ": 5651,
      "Ġ×Ļ×ŀ": 5652,
      "130": 5653,
      "Ġ×Ĳ×§×¡": 5654,
      "=K": 5655,
      "ĠLoc": 5656,
      "_×ŀ×Ļ×ł": 5657,
      "_×ŀ×§×¡": 5658,
      "Ġ×Ķ×ĳ×Ļ×Ł": 5659,
      "Ġ×ķ×¢×ĵ×ª": 5660,
      "×ķ×¡×ĺ×¨×Ļ×Ķ": 5661,
      "×ķ×Ľ×ĳ×Ļ×Ŀ": 5662,
      "×Ľ×ŀ×Ķ": 5663,
      "×ķ×Ĵ×ķ×¡×ľ×ĳ": 5664,
      "Ġ×ł×Ĳ×¡": 5665,
      "Ġ×ĵ×ŀ×ķ×Ļ×ķ×ª": 5666,
      "ther": 5667,
      "Ġ×Ķ×§×ķ×ŀ×ķ×ł": 5668,
      "Ġ×ŀ×ª×ķ×Ľ": 5669,
      "×ĺ×Ļ×Ļ×Ł": 5670,
      "Ġ×Ĺ×ķ×Ŀ": 5671,
      "Ġ×ŀ×©×ķ×ľ": 5672,
      "|×ŀ×Ļ×Ł": 5673,
      "Ġ×¢×Ļ×¨×Ļ×Ļ×ª": 5674,
      "Ġ×ľ×ķ×ķ": 5675,
      "Ġtext": 5676,
      "Ġ×Ķ×Ĳ×ł×Ĵ×ľ×Ļ×ª": 5677,
      "81": 5678,
      "Ġ×¢×©×¨×ķ×ª": 5679,
      "×Ļ×Ķ×ķ": 5680,
      "×Ļ×¡×ķ×§": 5681,
      "Ġ×¢×ĳ×ķ×ĵ×ķ×ª": 5682,
      "Ġ×ĳ×ŀ×Ľ×ķ×Ł": 5683,
      "73": 5684,
      "Ġ×ĺ×¨×Ĳ": 5685,
      "333": 5686,
      "Ġ×Ķ×ķ×¢×ĳ×¨": 5687,
      "Ġ×©×¨×Ķ": 5688,
      "Ġ×Ĳ×ł×Ķ": 5689,
      "Ġ×ª×ŀ×Ļ×ĵ": 5690,
      "×¤×ĺ×Ļ×Ŀ": 5691,
      "Ġ×¢×ĳ×ķ×ĵ×ª×ķ": 5692,
      "Ġ×ł×ĵ×¨": 5693,
      "×Ļ×Ķ×ķ×ĵ×Ļ×Ŀ": 5694,
      "Ġ×Ķ×Ļ×¦×Ļ×¨×Ķ": 5695,
      "Ġ×ĵ×Ļ×¤×ľ×ķ×ŀ×ĺ": 5696,
      "Ġ×Ķ×©×ª×ª×¤×ķ": 5697,
      "×ķ×¡×§×Ļ×Ŀ": 5698,
      "Ġ×©×ķ×ķ×Ļ×Ļ×¥": 5699,
      "×¨×¡×Ķ": 5700,
      "Ġ×Ĳ×ķ×Ľ×ľ×ķ×¡": 5701,
      "|×§×ķ×Ĳ×ķ×¨×ĵ×Ļ×ł×ĺ×ķ×ª": 5702,
      "Ġ×ª×¦": 5703,
      "×¨×ĳ×Ļ×Ķ": 5704,
      "Ġ×©×Ĳ×ľ": 5705,
      "Ġ×ĳ×¨×ķ×ĳ": 5706,
      "Ġ×ª×Ļ×Ĳ×ķ×¨": 5707,
      "×Ļ×Ĺ×Ļ×ĵ×ķ×ª": 5708,
      "Ġ×ķ×Ĺ×ľ×§": 5709,
      "Ġ×Ķ×ł×ĳ×Ĺ×¨×Ļ×Ŀ": 5710,
      "×Ļ×§×ł×Ļ×ª": 5711,
      "Ġ×ĳ×©×Ļ×¨×ķ×ª": 5712,
      "Ġ×ŀ×ĳ×ĺ": 5713,
      "ĠDe": 5714,
      "Ġ×¢×©×Ķ": 5715,
      "Ġ×Ķ×ŀ×Ļ×Ļ×¡": 5716,
      "Ġ×Ĵ×ł×¨×ľ": 5717,
      "Ġ×Ķ×ķ×ĳ×Ļ×ľ": 5718,
      "Ġ×ĳ×¦×ķ×¨×ª": 5719,
      "]}}": 5720,
      "×ķ×Ĵ×Ł": 5721,
      "Ġ×Ľ×ŀ×ķ×ª": 5722,
      "Ġ×ŀ×¡×ķ×Ļ×ŀ×Ļ×Ŀ": 5723,
      "×ķ×Ľ×Ļ×ª": 5724,
      "Ġ×§×Ļ×Ļ×ŀ×Ļ×Ŀ": 5725,
      "cy": 5726,
      "Ġ×ľ×Ķ×Ĺ×ľ": 5727,
      "Ġ×¨×Ľ×ĳ": 5728,
      "Ġ×Ľ×ĳ×ķ×ĵ": 5729,
      "olid": 5730,
      "Ġ×ĵ×Ļ×Ĵ×Ļ×ĺ": 5731,
      "Ġ×©×Ļ×ĵ×ķ×¨": 5732,
      "ater": 5733,
      "'×ŀ×Ĳ×ł×Ļ×ª": 5734,
      "Ġ×ķ×ĵ×Ļ×¨×ķ×Ĵ×Ļ×Ŀ": 5735,
      "-of": 5736,
      "×Ļ×©×ª×ķ": 5737,
      "Ġ×©×¤×ķ×ª": 5738,
      "Ġ×§×Ļ×¥": 5739,
      "Ġ×©×ĵ": 5740,
      "Ġ×Ĺ×§": 5741,
      "Ġ×ĳ×Ĳ×ķ×¨×ļ": 5742,
      "Ġ×Ĳ×¨×ķ×ļ": 5743,
      "Ġ×ĳ×ł×Ļ×Ļ×ª": 5744,
      "Ġ×Ķ×ŀ×ĸ×¨×Ĺ×Ļ": 5745,
      "Ġ×©×¤×¨": 5746,
      "Ġ×ľ×ŀ×Ĵ": 5747,
      "×ķ×¡×¤×ª": 5748,
      "Ġ×ĳ×Ĵ×ķ×ĳ×Ķ": 5749,
      "×¡×¤×ķ×¨×ĺ": 5750,
      "Ġ×Ļ×ł": 5751,
      "Ġ×ķ×Ĺ×¦×Ļ": 5752,
      "Ġ×Ķ×¤×ł×Ļ×Ŀ": 5753,
      "Ġ×Ķ×ŀ×¨×Ľ×ĸ×Ļ×ª": 5754,
      "×Ļ×Ļ×ĵ": 5755,
      "×¨×ĳ×ķ×¨×Ĵ": 5756,
      "×ķ×ĳ×¨×ª": 5757,
      "Ġ×Ķ×Ľ×Ĺ": 5758,
      "Ġ×ĳ×ŀ×ĸ×¨×Ĺ": 5759,
      "Ġ×Ķ×ª×¤": 5760,
      "Ġ×ŀ×§×ĵ": 5761,
      ".ed": 5762,
      "Ġ×ľ×ĳ×ł×ķ×Ł": 5763,
      "×ķ×ĵ×¨×Ķ": 5764,
      "Ġ×¤×¦": 5765,
      "Ġ×ľ×Ľ×Ļ×ķ×ķ×Ł": 5766,
      "×¦×Ļ×ľ×ķ×Ŀ": 5767,
      "Ġ×ł×ķ×Ľ": 5768,
      "×ķ×¤×ª×ķ": 5769,
      "Ġ×Ķ×§×ķ": 5770,
      "Ġ×¡×Ļ×ľ": 5771,
      "Ġ×Ķ×Ļ×©×Ļ×ĳ×Ķ": 5772,
      ".w": 5773,
      "Ġ×ŀ×¨×ĵ×Ľ×Ļ": 5774,
      "Ġ×¨×ķ×¡": 5775,
      "Ġ×ľ×ľ×Ļ×Ĵ×Ķ": 5776,
      "Ġ×Ķ×§×©×¨": 5777,
      "Ġ×Ķ×Ľ×ķ×Ĺ": 5778,
      "Ġ×ľ×©×ľ×ĺ×ķ×Ł": 5779,
      "Ġ×ŀ×ķ×ķ×Ļ×§": 5780,
      "Ġ×ł×¨×¦×Ĺ": 5781,
      "×Ļ×Ļ×Ĺ×ķ×¡": 5782,
      "Ġ×ł×Ļ×ĸ": 5783,
      "×Ļ×¡×Ļ×ķ×Ł": 5784,
      "69": 5785,
      "Ġ×©×Ļ×ª×ķ×£": 5786,
      "Ġ×ŀ×ĵ×ķ×ĳ×¨": 5787,
      "=Ð": 5788,
      "Ġ×ĳ×Ĳ×§×ĵ×ŀ×Ļ×Ķ": 5789,
      "its": 5790,
      "|×¤×¨×§": 5791,
      "ĠĊĊĊ": 5792,
      "rist": 5793,
      "Ġ×¤×Ļ×§×ķ×ĵ": 5794,
      "Ġ×¡×ķ×¤×¨": 5795,
      "ret": 5796,
      "-k": 5797,
      "Ġ×ł×¢×¨×ļ": 5798,
      "Ġ×ŀ×©×Ĳ": 5799,
      "×Ĵ×¨×Ļ×Ŀ": 5800,
      "Ġ×Ķ×ł×©×Ļ×Ŀ": 5801,
      "Ġ×¤×ķ×ĺ": 5802,
      "×ķ×Ķ×Ķ": 5803,
      "ĠEn": 5804,
      "ohn": 5805,
      "×Ķ×¤×¨": 5806,
      "Ġ×ľ×Ĳ×Ļ×¨": 5807,
      "Ġ×ľ×Ķ×§×Ļ×Ŀ": 5808,
      "×ĳ×ª×Ĺ×Ļ×ľ×ª": 5809,
      "Ġ×Ķ×¡×¨×ĺ×Ļ×Ŀ": 5810,
      "à¤": 5811,
      "×ł×§×Ļ×Ŀ": 5812,
      "Ġla": 5813,
      "Ġ×ŀ×¦×¢×ĵ×Ļ×Ŀ": 5814,
      "×ĳ×ľ×Ķ": 5815,
      "inal": 5816,
      "eng": 5817,
      "Ġ×ŀ×Ĳ×Ĺ×¨": 5818,
      "Ġ×Ķ×Ĺ×¨": 5819,
      ":H": 5820,
      "orn": 5821,
      "×ŀ×©×Ĺ×§×Ļ×Ŀ": 5822,
      "Ġ×ŀ×§×¡×Ļ×§×ķ": 5823,
      "×Ļ×ĸ×ĳ×ª": 5824,
      "ĠMy": 5825,
      "Ġ×Ĳ×ŀ×Ķ": 5826,
      "Ġ×Ĺ×©×Ļ×ĳ×ķ×ª": 5827,
      "Ġ×Ķ×¢×ķ×ľ×ŀ×Ļ": 5828,
      "×¨×ĺ×Ļ×¡": 5829,
      "×¤×ľ×ĵ": 5830,
      "iet": 5831,
      "^{": 5832,
      "Ġ×ª×¢×©×Ļ×Ļ×ª": 5833,
      "Ġ×ķ×ĳ×ŀ×§": 5834,
      "Ġ×Ķ×ķ×ķ": 5835,
      "Ġ×Ķ×ł×Ķ×¨": 5836,
      "×ŀ×ķ×ł×ĵ": 5837,
      "Ġ×ŀ×©×ľ×Ĺ×ª": 5838,
      "ĠĊĠĊĠĊĠĊĠĊĠĊĠĊĠĊ": 5839,
      "Ġ×ŀ×ķ×ķ×Ļ×§×Ļ×ł×ª×ķ×ł×Ļ×Ŀ": 5840,
      "Ġ×Ķ×Ľ×Ļ": 5841,
      "Ġ×Ķ×ŀ×Ľ×ķ×Ł": 5842,
      "_n": 5843,
      "Ġ×Ľ×ł×¨×Ĳ×Ķ": 5844,
      "Ġ×ŀ×Ĳ×©×¨": 5845,
      "ĠWorld": 5846,
      "Ġ×ĵ×¨×Ľ×ķ": 5847,
      "×ķ×ŀ×ł×Ļ×Ŀ": 5848,
      "Ġ×Ķ×ĵ×ŀ×ķ×§×¨×ĺ×Ļ×ª": 5849,
      "×Ķ×Ĵ": 5850,
      "Ġ×¢×ķ×¨×ļ": 5851,
      "Ġ--": 5852,
      "Ġ×Ķ×¤×¢×ķ×ľ×Ķ": 5853,
      "Ġ×¡×¤×¨×Ļ": 5854,
      "St": 5855,
      "Ġ×¨×ķ": 5856,
      "×Ļ×¤×Ļ×ķ×¨": 5857,
      "album": 5858,
      "Ġ×ķ×©×Ļ×ŀ×©": 5859,
      "rew": 5860,
      "140": 5861,
      "Ġ×Ķ×ĵ×ŀ×ķ×ª": 5862,
      "Ġ×©×Ļ×©×Ķ": 5863,
      "Ġ×©×ł×©": 5864,
      "×ŀ×Ļ×ĵ×¢": 5865,
      "-T": 5866,
      "=+": 5867,
      "Ġ×Ĺ×Ļ×Ļ×Ķ": 5868,
      "×ĺ×Ļ×¤×ķ×ľ": 5869,
      ":D": 5870,
      "×Ļ×ĳ×Ł": 5871,
      "×Ļ×Ĳ×ľ×Ļ": 5872,
      "/st": 5873,
      "Ġ×Ķ×¢×©×¨×Ļ×Ŀ": 5874,
      "Ġ×Ķ×ł×Ĳ": 5875,
      "×ł×¡×ĺ": 5876,
      "×¡×§×Ļ×Ŀ": 5877,
      "Ġ×ª×ŀ×ķ×ł×ķ×ª": 5878,
      "|M": 5879,
      "Ġ×Ľ×Ķ×ķ×ł×ª×ķ": 5880,
      "_I": 5881,
      "×ķ×¢×¥": 5882,
      "Ġ×ľ×¤×Ĺ×ķ×ª": 5883,
      "×Ļ×ª×ķ×ł×ķ×ª": 5884,
      "Ġ×Ļ×Ĺ×¡×Ļ": 5885,
      "Ġ×ĸ×ľ": 5886,
      "Ġ×ĳ×Ĺ×ĳ×¨×ª": 5887,
      "Ġ×ķ×ĳ×Ķ×Ŀ": 5888,
      "âĢĶ": 5889,
      "Ġ×Ĳ×¨×Ļ×Ķ": 5890,
      "×Ļ×ĺ×¨×Ķ": 5891,
      "Ġ×ľ×©×ł×Ļ": 5892,
      "Ġ×ŀ×¤×ķ×¨×ĺ": 5893,
      "ĠMar": 5894,
      "Ġ×ľ×Ķ×Ļ×©": 5895,
      "ake": 5896,
      "×ķ×¡×¡×ª": 5897,
      "Ġ×Ķ×§×ķ×ł×Ĵ×¨×¡": 5898,
      "×Ķ×ĳ×Ķ": 5899,
      "Ġ×¢×ĳ×¨×Ļ×ª": 5900,
      "×Ļ×¦×Ļ×Ŀ": 5901,
      "Ġ×¤×¢×ľ": 5902,
      "×Ļ×¡×ĺ×¨": 5903,
      "Ġ×ŀ×©×¤×Ĺ×ķ×ª": 5904,
      "Ġ×ŀ×Ĺ×ķ×ľ": 5905,
      "ĠIt": 5906,
      "Ġ×¢×ķ×ĳ×ĵ": 5907,
      "Ġ×¦×¢×Ļ×¨×Ļ×Ŀ": 5908,
      "Ġ×Ĺ×ķ×ĸ": 5909,
      "Ġ×¨×Ĳ×ķ": 5910,
      "-×¦": 5911,
      "=×Ĳ×ł×Ļ": 5912,
      "Ġ×¢×ķ×ĳ×¨": 5913,
      "×ĳ×ķ×ĵ×ķ×ª": 5914,
      "Ġ×Ķ×ķ×ª": 5915,
      "Ġ×ķ×Ķ×ł": 5916,
      "×¨×ķ×Ĺ×ĳ": 5917,
      "×ķ×ĳ×ķ×¡": 5918,
      "Ġ×Ķ×©×Ļ×©×Ļ": 5919,
      "131": 5920,
      "Ġ×ł×ĸ": 5921,
      "Ġ×ľ×Ļ×ŀ×Ļ×Ł": 5922,
      "Ġ×¨×Ĺ×ĳ": 5923,
      "Ġ×Ĳ×ķ×¡×£": 5924,
      "×Ĳ×ķ×ª×Ķ": 5925,
      "Ġ×Ķ×Ĳ×ĸ×¨×Ĺ×Ļ×Ŀ": 5926,
      "84": 5927,
      "ax": 5928,
      "Ġ×ľ×ĳ×ł×ķ×ª": 5929,
      "Ġ×Ľ×Ĺ×ĳ×¨": 5930,
      "=×Ĳ×ľ": 5931,
      "Ġ×ŀ×Ķ×Ĺ": 5932,
      "Ġ×ľ×Ķ×ķ×¤×Ļ×¢": 5933,
      "Ġ×ŀ×¤×¨": 5934,
      "Ġ×ľ×Ķ×§×ŀ×ª": 5935,
      "×ĳ×ľ×Ļ×Ŀ": 5936,
      "website": 5937,
      "×Ĳ×ĸ×ķ×¨": 5938,
      "Ġ×ĳ×Ļ×ŀ×Ļ": 5939,
      "×¨×Ĳ×Ļ": 5940,
      "Ġ×Ķ×ĸ×ŀ×¨": 5941,
      "Ġ×ľ×¢×ĳ×ķ×¨": 5942,
      "Ġ×ŀ×ŀ×ĵ": 5943,
      "Ġ×Ķ×Ĺ×ķ×£": 5944,
      "×¦×¤×ª": 5945,
      "Ġ×Ķ×¢×ĳ×¨×Ļ": 5946,
      "Ġ×Ļ×ĸ": 5947,
      "Ġ×Ļ×¦×Ĳ×ķ": 5948,
      "74": 5949,
      "Ġ×ĳ×¨×ĸ×ľ": 5950,
      "×ĳ×Ļ×ĳ×ķ×ª": 5951,
      "AC": 5952,
      "yn": 5953,
      ".ĊĊĊĊ": 5954,
      "Ġ×Ķ×ª×Ļ×Ĳ×ĺ×¨×ķ×Ł": 5955,
      "ube": 5956,
      "Ġ×ľ×Ļ×ĳ": 5957,
      "Ġ×Ķ×ŀ×©×ŀ×©": 5958,
      "Ġ×ĳ×ĳ×ª×Ļ": 5959,
      "Ġ×ŀ×Ļ×ľ×Ļ×Ĳ×¨×ĵ": 5960,
      "/re": 5961,
      "Ġ×Ķ×©×ķ×Ĳ×Ķ": 5962,
      "ox": 5963,
      "×¤×Ļ×¤×ķ×ª": 5964,
      "Ġ×Ķ×ŀ×ĵ×¢": 5965,
      "Ġ×Ķ×ª×Ĺ×ª×Ł": 5966,
      "×Ļ×¢×ķ×ĵ": 5967,
      "×ŀ×Ļ×ª×Ļ": 5968,
      "-NBA": 5969,
      "Ġ×ľ×Ļ×ŀ×ĵ": 5970,
      "Ġ×ĳ×ª×Ŀ": 5971,
      "Ġ×ŀ×ŀ×ķ×¦×Ĳ": 5972,
      "ings": 5973,
      "Ġ×Ķ×ķ×Ĺ×ľ×ĺ": 5974,
      "×ľ×©": 5975,
      "Ġ×ĵ×Ļ×ķ": 5976,
      "erv": 5977,
      "×ķ×Ķ×Ļ×Ŀ": 5978,
      "×ĵ×Ĵ": 5979,
      "-×ŀ×ĸ×¨×Ĺ": 5980,
      "Ġ×Ļ×ķ×¨": 5981,
      "×ł×Ķ×ľ": 5982,
      "Ġ×ĳ×Ķ×ŀ×Ĳ×Ķ": 5983,
      "Ġ×ł×ķ×ĵ×¢": 5984,
      "Ġ×ĳ×©×¨": 5985,
      "Ġ×ŀ×ª×¨×Ĺ": 5986,
      "|×Ĵ×Ļ×ľ": 5987,
      "=×ľ×ķ×Ĵ×ķ": 5988,
      "'×Ļ×Ķ": 5989,
      "×Ļ×Ļ×©×ķ×ĳ": 5990,
      "Ġ×©×ķ×ª": 5991,
      "une": 5992,
      "Ġ×ŀ×ķ×©×ĳ×Ļ×Ŀ": 5993,
      "Ġ×©×©×Ļ×ŀ×©": 5994,
      "Ġ×ĳ×¨×Ĳ×©×Ļ×ª": 5995,
      "Ġ×¤×ľ×¡×ĺ": 5996,
      "700": 5997,
      "Ġ×Ķ×Ĳ×§×ĵ": 5998,
      "×ķ×§×£": 5999,
      "Ġ×ĳ×ķ×ľ×ĺ×Ļ×Ŀ": 6000,
      "que": 6001,
      "Ġ×ĳ×§×Ļ×¥": 6002,
      "×ķ×ł×ķ×ŀ×Ļ×Ķ": 6003,
      "-v": 6004,
      "×ķ×ŀ×¨×Ļ": 6005,
      "Ġ×©×ĳ×ķ×¢×ķ×ª": 6006,
      "Ġ×Ľ×ķ×ľ×Ŀ": 6007,
      "×ĳ×©×ł×ķ×ª": 6008,
      "Ġ×¢×ķ×¦": 6009,
      "175": 6010,
      "Ġ×ĵ×ł×ŀ×¨×§": 6011,
      "|×ĸ": 6012,
      "Ġ×ĸ×Ľ×ķ×ª": 6013,
      "Ġ×ľ×ķ×Ĳ×Ļ×¡": 6014,
      "×Ľ×Ļ×ª": 6015,
      ".wik": 6016,
      "176": 6017,
      "Ġ×§×ķ×¨×Ļ×Ĳ×Ķ": 6018,
      "×Ĳ×Ļ×Ł": 6019,
      "×ľ×ĺ×ķ": 6020,
      "Ġ×Ķ×ĳ×Ĳ×Ļ×Ŀ": 6021,
      "Ġ×ĸ×Ķ×ķ": 6022,
      "×ŀ×©×ŀ×Ĳ×ľ": 6023,
      "Ġ×ŀ×ķ×¨×Ľ×ĳ": 6024,
      "Ġ×¦×Ļ×ķ×¨": 6025,
      "Ġ×ŀ×¢×ķ×ľ×Ŀ": 6026,
      "Ġ(''": 6027,
      "ĠĠĠĠĠĠĠ": 6028,
      "ipedia": 6029,
      "Ġ×Ĳ×Ļ×¨×ľ×ł×ĵ": 6030,
      "×ł×ĺ×Ĳ×¨×§×ĺ×Ļ×§×Ķ": 6031,
      "Wik": 6032,
      "Ġ×ķ×Ĵ×ĵ×ľ": 6033,
      "Ġ×ĳ×Ķ×¤": 6034,
      "×ķ×ł×ª×Ł": 6035,
      "Ġ×ª×ŀ×ķ×¨×ª": 6036,
      ".d": 6037,
      "|language": 6038,
      "Ġ×Ķ×ķ×ĸ": 6039,
      "Ġ×¤×Ļ×ª": 6040,
      "-×ĳ": 6041,
      "Ġ×ĳ×§×ľ": 6042,
      "Ġ×ľ×Ļ×ĵ×Ļ": 6043,
      "×Ĺ×¨×¨": 6044,
      "×Ļ×Ĵ×ľ": 6045,
      "Ġ×ĳ×¨×Ļ×¦×ª": 6046,
      "Ġ×©×Ļ×ŀ×©×Ķ": 6047,
      "Ġ×¨×Ļ×©×Ļ×ķ×Ł": 6048,
      "Ġ×ľ×Ĳ×ĸ×ķ×¨": 6049,
      "Ġ×§×¨×Ļ×Ļ×ª": 6050,
      "Ġ×ĳ×Ĺ×Ļ×¤×Ķ": 6051,
      "Ġ×Ķ×ª×Ĵ×Ļ×Ļ×¡": 6052,
      "×ķ×¢×ķ×ª": 6053,
      "Ġ×Ĳ×ĵ×ķ×Ĳ×¨×ĵ": 6054,
      "×¦×¨×ĺ": 6055,
      "Ġ×Ļ×§": 6056,
      "Ġ×Ķ×ĳ×¢": 6057,
      "×©×Ļ×¨×Ļ": 6058,
      "=×Ķ×¢×¨×Ķ": 6059,
      "Ġ×ķ×ľ×©": 6060,
      "×ŀ×¤×¨×ĺ×ķ×¨×Ķ": 6061,
      "×ŀ×ł×Ļ×Ļ×Ł": 6062,
      "|×©×ķ×ł×ķ×ª": 6063,
      "Ġ×ľ×Ķ×ķ×¨×Ĵ": 6064,
      "Ġ×Ĳ×ł×Ĵ×ľ×Ļ×ª": 6065,
      "Ġ×ŀ×ķ×©×ľ": 6066,
      "Ġ×ĳ×Ļ×ĵ": 6067,
      "Ġ×Ķ×Ĳ×ª": 6068,
      "Ġ×Ķ×Ĵ×ĳ×ķ×ľ": 6069,
      "Ġ×ŀ×ĵ×Ļ×ł×Ļ×ķ×ª": 6070,
      "×Ĳ×ŀ×Ķ": 6071,
      "Ġ×Ļ×ķ×ķ×Ł": 6072,
      "Ġ×¨×ĵ×Ļ×ķ": 6073,
      "Ġ×©×Ľ×ª×ĳ": 6074,
      "×¤×¨×ĺ": 6075,
      "Ġ×ľ×ª×ª": 6076,
      "Ġ×ĳ×ĳ×¨×ľ×Ļ×Ł": 6077,
      "×ķ×Ĵ×Ļ": 6078,
      "Ġ×Ķ×¡×¤×¨×Ļ×Ŀ": 6079,
      "'×Ĳ×ł": 6080,
      "×ķ×Ĵ×ķ×ª": 6081,
      "collap": 6082,
      "Ġ×ł×¡×Ļ×Ľ×ª": 6083,
      "ams": 6084,
      "Ġ×ĳ×¨×¦": 6085,
      "Ġ×Ľ×©×ľ": 6086,
      "×Ļ×Ĺ×Ļ×ĵ×ª": 6087,
      "'×Ļ×ľ": 6088,
      "):": 6089,
      "Ġ×Ķ×ŀ×ĸ×¨×Ĺ×Ļ×ª": 6090,
      "Ġ×©×ľ×Ļ×©×Ļ": 6091,
      "×Ĳ×¨×Ĵ×ķ×Ł": 6092,
      "Ġ×Ķ×Ķ×§": 6093,
      "Ġ×Ľ×ª×ĳ×Ķ": 6094,
      "Ġ×ķ×ł×©": 6095,
      "argin": 6096,
      "/index": 6097,
      "Ġ×ķ×Ļ×ĺ": 6098,
      "Ġ×ŀ×Ĳ×ŀ×Ł": 6099,
      "Ġ×Ķ×Ķ×Ļ×¡×ĺ×ķ×¨×Ļ×Ķ": 6100,
      "Ġ×ŀ×Ļ×Ļ×§×ľ": 6101,
      "Ġ×ĳ×Ľ×ª×ĳ": 6102,
      "Ġ×Ľ×ŀ×Ĺ": 6103,
      "Ġ×Ķ×ĳ×Ĳ×ķ×ª": 6104,
      "×¤×ķ×¨×ŀ×Ķ": 6105,
      "Ġ×Ķ×ŀ×ķ×ĸ×Ļ×Ĳ×ķ×Ł": 6106,
      "Ġ×ł×ķ×¡×ĵ×Ķ": 6107,
      "ER": 6108,
      "padding": 6109,
      "Ġ×ĳ×©×Ĺ": 6110,
      "Ġ×ŀ×Ľ×Ļ×ľ": 6111,
      "Ġ×ŀ×Ķ×¨": 6112,
      "Ġ×ŀ×¦×¢×ĵ": 6113,
      "/wiki": 6114,
      "port": 6115,
      "Ġx": 6116,
      "Ö·×Ļ": 6117,
      "Ġ×ł×ŀ×ľ": 6118,
      "Ġ×Ļ×Ľ×ķ×ľ×ª": 6119,
      "Ġ×Ķ×¦×ĳ×Ĳ×Ļ×ª": 6120,
      "Ġ×©×ł×Ļ×ª×Ł": 6121,
      "×Ļ×ł×¡×§×Ļ": 6122,
      "×ķ×ĸ×Ĳ×ķ×¨": 6123,
      "Ġ×ŀ×Ļ×§": 6124,
      "×Ļ×ł×ķ×Ĳ×¨": 6125,
      "×Ļ×Ĳ×ł×Ļ": 6126,
      "]}}Ċ": 6127,
      "×Ļ×¡×ķ": 6128,
      "Ġ×ĳ×ŀ×Ĳ×Ķ": 6129,
      "/P": 6130,
      "Ġ×¢×ķ×ľ×Ķ": 6131,
      "Ġ×¨×ķ×ĸ×Ł": 6132,
      "Ġ×ľ×¦×Ĳ×ª": 6133,
      "Ġ×Ķ×ŀ×¢×¨×Ľ×ª": 6134,
      "79": 6135,
      "×ķ×Ĺ×¨×Ļ×Ŀ": 6136,
      "Ġ×Ľ×ľ×©×Ķ": 6137,
      "Ġ×ľ×©×¨": 6138,
      "Ġ×Ļ×ķ×Ķ": 6139,
      "Ġ×ŀ×Ĺ×¡": 6140,
      "Ġ×¤×Ļ×ĸ": 6141,
      "Ġ×ķ×Ķ×¤×ļ": 6142,
      "-to": 6143,
      "Ġ×Ķ×ĳ×ķ×Ĵ×¨×ª": 6144,
      ":T": 6145,
      "×ķ×¡×Ļ×£": 6146,
      "Ġ×Ļ×¦×Ĳ×Ķ": 6147,
      "-P": 6148,
      "Ġ×ĳ×Ķ×©": 6149,
      "tain": 6150,
      "lat": 6151,
      "Ġ×ª×Ĺ×ķ×Ŀ": 6152,
      "Ġ×Ķ×¨×ķ×¡×Ļ": 6153,
      "Ġ×ĳ×ĺ×§×¡": 6154,
      "Ġ×ľ×©×Ļ×¨×ķ×ª": 6155,
      "71": 6156,
      "Ġ×¢×ľ×ª×Ķ": 6157,
      "Ġ×ĵ×ŀ×ķ×ª": 6158,
      "Ġ×ĳ×ª×ķ×Ľ": 6159,
      "Ġ×ľ×Ĺ×Ŀ": 6160,
      "×ª×¤×§×Ļ×ĵ×Ļ×Ŀ": 6161,
      "Ġ×Ĺ×ľ×ĳ": 6162,
      "Ġ×ķ×ĳ×ł": 6163,
      ":G": 6164,
      "-×ł": 6165,
      "×Ĳ×¨×Ĵ": 6166,
      "Ġ×¢×ŀ×ķ×ĵ×Ļ×Ŀ": 6167,
      "Ġ×Ķ×§×ĵ×ķ×©": 6168,
      "Ġ×¨×¦×Ĺ": 6169,
      "Ġ×Ķ×ª×Ĵ×ķ×¨": 6170,
      "|×ª×©×¨×Ļ": 6171,
      "ontent": 6172,
      "×ĳ×Ĺ×Ļ×¨×ķ×ª": 6173,
      "Ġ×ĳ×ĳ×¨×Ļ×ĺ×ł×Ļ×Ķ": 6174,
      "ound": 6175,
      "Ġ×ĵ×ĳ": 6176,
      "ĠRe": 6177,
      "Ġ×¡×¤×§": 6178,
      "Ġ×Ķ×ŀ×©×Ĺ×§×Ļ×Ŀ": 6179,
      "ĠÃ": 6180,
      ").Ċ": 6181,
      "'×ķ×ł×Ļ": 6182,
      "_p": 6183,
      "×Ĺ×ĳ×¨×ª": 6184,
      "Ġ×Ļ×Ļ×ª": 6185,
      "Ġ×ŀ×¨×Ĺ": 6186,
      "|×ł×Ļ×¡×Ł": 6187,
      "Ġ×ŀ×ĳ×Ĺ×Ļ×ł×Ķ": 6188,
      "Ġ×ĳ×ª×ķ×ľ×ĵ×ķ×ª": 6189,
      "Ġ×Ľ×ķ×ľ×ľ×Ļ×Ŀ": 6190,
      "|×Ĳ×Ļ×Ļ×¨": 6191,
      "Ġ×¦×Ĳ×¦×Ĳ×Ļ×Ŀ": 6192,
      "Ġ×Ķ×Ĺ×¡": 6193,
      "Ġ×Ĵ×Ļ×ľ×Ŀ": 6194,
      "me": 6195,
      "Ġ×Ķ×¨×ĳ×Ļ×¢×Ļ×ª": 6196,
      "×ĳ×¡×¡": 6197,
      "×ķ×ľ×ľ": 6198,
      "Ġ×¡×ŀ×ķ×ļ": 6199,
      "'×ª×¨": 6200,
      "ED": 6201,
      "Ġ×ĳ×¨×ķ×¡×Ļ×Ķ": 6202,
      "Ġcolor": 6203,
      "Ġ×ª×ĳ": 6204,
      "Ġ×ŀ×§×ķ×ŀ×ķ×ª": 6205,
      "Ġ×ł×ķ×Ķ": 6206,
      "\"×Ł": 6207,
      "Ġ×Ķ×Ĳ×ķ×¨": 6208,
      "Ġ×ł×Ĺ×ľ": 6209,
      "Ġ×ŀ×¨×ĺ×Ļ×Ł": 6210,
      "×¤×Ļ×ķ×ª": 6211,
      "Ġ×Ķ×ŀ×Ļ×ĵ×¢": 6212,
      "×ĳ×¢×§×ĳ×ķ×ª": 6213,
      "Ġ×ŀ×ł×ķ×¢": 6214,
      "Ġ×ł×¡×¢": 6215,
      "Ġ×Ļ×Ļ×¦×ķ×¨": 6216,
      "×ŀ×§×ĵ": 6217,
      "Ġ×ŀ×¦×¤×ķ×Ł": 6218,
      "102": 6219,
      "Ġ×Ķ×ĵ×¨×ķ×ŀ×Ļ": 6220,
      "×ķ×¦×¨×Ķ": 6221,
      "×Ķ×¡×¤×¨": 6222,
      "×§×ĳ×ķ×¦×ª": 6223,
      "fa": 6224,
      "Ġ×Ķ×©×ŀ×©": 6225,
      "Ġ×ŀ×Ĳ×ŀ×¨×Ļ×Ŀ": 6226,
      "Ġ×Ĳ×ĳ×¨": 6227,
      "×ķ×ľ×ķ×Ĵ×Ļ×ķ×ª": 6228,
      "Ġ×¤×¢×ŀ×Ļ×Ļ×Ŀ": 6229,
      "Ġ×Ķ×Ĳ×Ļ×¨×ķ×¤×Ļ": 6230,
      "Ġ×ľ×ŀ×Ķ": 6231,
      "|×¡×Ļ×ķ×ķ×Ł": 6232,
      "Ġ×Ķ×Ļ×¢": 6233,
      "×ĳ×Ļ×ķ": 6234,
      "105": 6235,
      "uss": 6236,
      "×Ļ×ŀ×ł×ĺ": 6237,
      "lab": 6238,
      "'×Ļ×ł×Ĵ": 6239,
      "hat": 6240,
      "Ġ×Ĳ×Ļ×Ļ": 6241,
      "Ġ×ŀ×©×ķ×ª": 6242,
      "Ġ×ĳ×ª×ķ×Ŀ": 6243,
      "|×Ľ×¡×ľ×ķ": 6244,
      "Ġis": 6245,
      "Ġ×ŀ×ł×Ĺ×Ŀ": 6246,
      ".k": 6247,
      "Ġ×ł×Ľ×ľ×ľ": 6248,
      "Ġ×Ĺ×©×ĳ": 6249,
      "×Ĺ×©×ĳ": 6250,
      "Ġ×¤×¨×¡×Ļ": 6251,
      "×ķ×ª×Ļ": 6252,
[...]
